<unk>	0
<s>	0
</s>	0
[PAD]	0
[CLS]	0
[SEP]	0
[MASK]	0
、	-3.00948
。	-3.28623
▁	-3.528
の	-3.65788
は	-4.008
が	-4.36505
・	-4.42747
)	-4.47708
(	-4.54791
年	-4.5581
に	-4.67812
を	-4.69093
で	-4.86859
と	-4.94784
」	-5.2205
月	-5.2805
「	-5.29722
1	-5.65591
2	-5.68034
や	-5.70755
から	-5.73707
である	-5.74133
した	-5.87853
3	-5.89139
も	-5.91019
し	-5.91558
日	-5.93436
として	-6.07494
』	-6.15222
する	-6.15863
4	-6.15906
では	-6.20283
『	-6.23628
た	-6.39849
5	-6.43607
には	-6.49288
6	-6.58554
年に	-6.59579
など	-6.63585
7	-6.66972
10	-6.67552
▁また	-6.70746
8	-6.73464
という	-6.76082
9	-6.8116
された	-6.82093
▁-	-6.8224
る	-6.84965
している	-6.85277
して	-6.85362
な	-6.8765
第	-6.88107
て	-6.88978
ス	-6.93716
-	-6.94199
大	-6.94223
人	-6.94636
日に	-6.96901
"	-6.97023
12	-6.97346
ている	-6.9756
その	-6.98023
11	-7.06148
市	-7.06944
による	-7.08044
によって	-7.09762
となった	-7.10298
により	-7.13337
であり	-7.13865
:	-7.1529
▁この	-7.18052
であった	-7.18137
され	-7.19172
s	-7.21258
この	-7.2227
中	-7.25254
山	-7.28535
,	-7.28804
.	-7.30306
町	-7.32599
m	-7.36012
、「	-7.3801
へ	-7.38051
一	-7.38357
となる	-7.38478
ア	-7.38506
がある	-7.38535
より	-7.39112
り	-7.39997
本	-7.4006
か	-7.41066
日本	-7.41282
される	-7.41489
ド	-7.42963
ため	-7.43414
回	-7.45592
への	-7.45624
▁しかし	-7.46268
a	-7.46281
ク	-7.48112
20	-7.48171
昭和	-7.48354
後	-7.48481
まで	-7.49022
ズ	-7.49092
ト	-7.50208
上	-7.50524
ラ	-7.51846
長	-7.53015
15	-7.54111
国	-7.54686
名	-7.55134
▁(	-7.55309
ていた	-7.56522
だった	-7.57327
などの	-7.58287
月に	-7.58592
部	-7.59162
新	-7.59549
16	-7.59941
において	-7.60213
駅	-7.60434
子	-7.60643
い	-7.61766
されている	-7.61833
17	-7.63493
的な	-7.63851
川	-7.63928
していた	-7.64161
にも	-7.6669
線	-7.66777
▁『	-7.67145
30	-7.67157
/	-7.6746
ナ	-7.67753
および	-7.68652
郡	-7.69068
者	-7.69778
18	-7.70859
法	-7.70957
カ	-7.7144
性	-7.71755
家	-7.73271
高	-7.73475
元	-7.73794
分	-7.75114
タ	-7.75637
でも	-7.75856
島	-7.75994
となり	-7.76937
マ	-7.76998
リ	-7.77026
14	-7.77353
同	-7.77661
ら	-7.77824
的	-7.7868
道	-7.79088
田	-7.79221
13	-7.79543
水	-7.79856
号	-7.80134
』(	-7.81091
にある	-7.81466
b	-7.81593
ル	-7.81943
東	-7.82464
三	-7.82506
年には	-7.8292
戦	-7.83685
▁なお	-7.8402
数	-7.8587
化	-7.86035
時	-7.86262
コ	-7.86272
型	-7.86338
西	-7.86746
村	-7.87283
c	-7.87761
平成	-7.87874
における	-7.88317
デ	-7.89049
大学	-7.89146
下	-7.89385
南	-7.8964
ム	-7.89747
生	-7.89764
小	-7.9126
つ	-7.91637
く	-7.92019
約	-7.92637
ノ	-7.92922
地	-7.93109
州	-7.9334
った	-7.94233
▁その後	-7.94293
内	-7.94302
き	-7.94364
バ	-7.94569
ダ	-7.94694
位	-7.94702
となっている	-7.95124
み	-7.96491
レ	-7.96966
f	-7.97106
t	-7.9711
年から	-7.97855
お	-7.98135
日本の	-7.98308
サ	-7.98381
ており	-7.98499
会	-7.98872
フ	-7.98876
=	-7.9931
手	-7.99792
d	-8.00127
前	-8.00464
年の	-8.00636
北	-8.00745
19	-8.0099
25	-8.01171
とは	-8.01452
オ	-8.01828
等	-8.02212
こと	-8.0225
系	-8.03318
式	-8.04321
ロ	-8.05752
神	-8.06464
エ	-8.06656
にて	-8.06702
東京	-8.06845
▁「	-8.07191
城	-8.08041
映画	-8.08647
形	-8.09081
21	-8.0909
マン	-8.09859
金	-8.10015
24	-8.10944
シ	-8.10953
代	-8.1096
後に	-8.10986
ジ	-8.11201
軍	-8.11451
また	-8.11478
野	-8.11796
イ	-8.12221
について	-8.12364
王	-8.12366
リー	-8.13022
作品	-8.13136
用	-8.13236
勝	-8.13345
二	-8.14646
p	-8.1499
原	-8.15024
n	-8.15378
全	-8.15435
e	-8.15477
キ	-8.15863
す	-8.15946
ガ	-8.1629
文	-8.16368
行	-8.16854
との	-8.16977
チ	-8.1699
放送	-8.17056
語	-8.17158
があり	-8.17777
所	-8.17853
g	-8.18184
正	-8.18343
力	-8.19108
22	-8.1953
ティ	-8.19573
ない	-8.19763
物	-8.20204
光	-8.20348
石	-8.20379
ザ	-8.20682
木	-8.20873
23	-8.21029
社	-8.2104
x	-8.21229
現	-8.21254
地域	-8.2207
ディ	-8.22126
」(	-8.2255
平	-8.22791
点	-8.22884
機	-8.23298
▁"	-8.23752
ン	-8.23828
海	-8.24021
区	-8.24272
世界	-8.24274
人の	-8.24717
寺	-8.24761
学	-8.25035
ミ	-8.25572
r	-8.25725
とする	-8.26567
万	-8.26636
26	-8.27368
28	-8.27413
って	-8.27524
だ	-8.27547
ニ	-8.2787
外	-8.27955
いた	-8.28033
27	-8.28431
つの	-8.28586
車	-8.28698
明治	-8.28795
ツ	-8.2892
県	-8.29276
目	-8.29638
う	-8.29707
世	-8.30005
活動	-8.30072
ネ	-8.3021
さ	-8.30335
作	-8.30657
のみ	-8.30703
こ	-8.30831
版	-8.30877
書	-8.31003
h	-8.31082
ゲーム	-8.31092
」「	-8.31297
ブ	-8.31555
和	-8.31876
k	-8.32102
及び	-8.32127
プ	-8.32441
セ	-8.3258
出	-8.32826
シリーズ	-8.32939
グ	-8.3309
義	-8.33175
とともに	-8.33214
チーム	-8.33518
立	-8.33637
旧	-8.33852
に対して	-8.33858
公	-8.33872
パ	-8.34365
できる	-8.34373
見	-8.34471
29	-8.34567
事	-8.35275
イン	-8.3538
時間	-8.35871
とも	-8.3592
になった	-8.35925
もの	-8.36012
▁その	-8.36176
テ	-8.36239
明	-8.36533
v	-8.36591
j	-8.36837
面	-8.37103
になる	-8.37648
各	-8.37779
度	-8.37939
ハ	-8.38066
シュ	-8.38691
を持つ	-8.38801
両	-8.38853
局	-8.39134
ビ	-8.39473
期	-8.39652
現在の	-8.39674
間	-8.40101
l	-8.40174
i	-8.41057
曲	-8.41598
ある	-8.41745
無	-8.41801
メ	-8.41802
馬	-8.42018
重	-8.42253
体	-8.42441
、『	-8.42685
カー	-8.43006
と呼ばれる	-8.43548
と共に	-8.4357
w	-8.43827
モ	-8.44038
研究	-8.44259
鉄道	-8.44369
ウ	-8.45013
多くの	-8.45095
美	-8.45152
での	-8.45326
話	-8.45619
事業	-8.45709
については	-8.45968
すると	-8.45975
番組	-8.4612
種	-8.46543
国際	-8.46593
または	-8.4673
50	-8.46734
アメリカ	-8.4722
風	-8.4734
バー	-8.47924
音楽	-8.47986
白	-8.48011
31	-8.48012
100	-8.48191
当時	-8.48395
口	-8.48406
に対する	-8.48518
バス	-8.48818
ゴ	-8.49066
ケ	-8.49431
y	-8.49474
賞	-8.49699
プロ	-8.5052
級	-8.50559
天	-8.50966
橋	-8.51166
谷	-8.51222
同年	-8.51289
日の	-8.51601
文化	-8.51807
不	-8.51815
船	-8.51824
しており	-8.51868
リーグ	-8.52026
頭	-8.52041
ま	-8.52157
宮	-8.52163
40	-8.52417
学校	-8.52423
教育	-8.52994
からの	-8.53089
直	-8.53317
ラン	-8.53482
を行う	-8.53524
室	-8.5384
ボ	-8.53848
▁これは	-8.54144
他の	-8.54744
選手	-8.55159
着	-8.55216
開発	-8.55329
安	-8.55447
問題	-8.55622
されていた	-8.55669
サン	-8.55727
アン	-8.55857
地方	-8.55994
監督	-8.5612
場	-8.56309
的に	-8.5648
")	-8.56503
台	-8.56653
トン	-8.56787
地区	-8.56854
め	-8.56866
cm	-8.5716
アルバム	-8.57164
ター	-8.57385
グループ	-8.57507
ヤ	-8.57509
初	-8.57529
通	-8.57665
フランス	-8.57858
さらに	-8.57916
アル	-8.58009
科	-8.58044
氏	-8.58045
テレビ	-8.582
方	-8.58245
km	-8.58375
に関する	-8.58711
といった	-8.58739
門	-8.58787
ラー	-8.5892
代表	-8.58937
年間	-8.59082
システム	-8.59088
▁同年	-8.59543
成	-8.59945
番	-8.60063
次	-8.60076
o	-8.60206
中国	-8.60482
流	-8.60837
屋	-8.60928
心	-8.61224
後の	-8.61577
権	-8.61756
都市	-8.61969
があった	-8.62079
シー	-8.62477
コン	-8.62694
計画	-8.63062
ように	-8.63184
のため	-8.63269
ことから	-8.63484
信	-8.63499
主	-8.63529
u	-8.63637
事件	-8.63681
音	-8.64032
論	-8.64067
ドイツ	-8.64289
院	-8.64299
制	-8.64394
日から	-8.64835
ロー	-8.64857
ヒ	-8.65199
ために	-8.65305
としては	-8.65456
ず	-8.65487
別	-8.6552
情報	-8.66058
気	-8.66531
～	-8.66663
ー	-8.66698
巻	-8.66715
ながら	-8.66812
花	-8.66891
色	-8.67231
館	-8.67877
試合	-8.67894
!	-8.68884
先	-8.69071
特に	-8.69105
ものの	-8.69178
▁ただし	-8.6926
ポ	-8.69406
所属	-8.69522
'	-8.69605
朝	-8.70007
組織	-8.70024
スト	-8.70807
を経て	-8.71296
真	-8.71377
出身	-8.7153
ニー	-8.71849
られた	-8.71871
のために	-8.71877
大会	-8.72276
政	-8.72298
井	-8.72448
リン	-8.72462
とされる	-8.72823
丸	-8.72838
スター	-8.73001
ほか	-8.73033
女性	-8.732
運動	-8.73262
派	-8.73409
▁第	-8.73516
む	-8.73608
センター	-8.73937
社会	-8.73979
ソ	-8.74178
店	-8.74259
歳	-8.7444
もある	-8.74447
関係	-8.74536
官	-8.74565
技術	-8.74586
史	-8.74899
清	-8.75116
総	-8.75175
施設	-8.7544
座	-8.75449
有	-8.75554
時に	-8.75568
マー	-8.76108
▁さらに	-8.76187
会社	-8.76248
させた	-8.76464
だが	-8.77026
株式会社	-8.77149
ではなく	-8.77187
を行った	-8.7731
ことを	-8.78334
場合	-8.78409
中央	-8.78659
エル	-8.78709
愛	-8.78832
いる	-8.78839
古	-8.78916
武	-8.79008
ほど	-8.79097
それ	-8.79151
対	-8.79177
歌	-8.79205
星	-8.79484
シーズン	-8.79558
経済	-8.79668
▁そして	-8.79764
とした	-8.79769
を受け	-8.79816
組	-8.79895
発	-8.80114
兵	-8.80342
五	-8.80372
ことで	-8.80706
ベ	-8.80711
戦争	-8.80749
を含む	-8.80769
四	-8.80814
女	-8.8094
円	-8.81021
じ	-8.81342
ワ	-8.81384
よりも	-8.81462
年まで	-8.81493
させる	-8.8153
大きな	-8.81599
状態	-8.82014
多	-8.82073
当時の	-8.82242
大阪	-8.82378
え	-8.82427
月には	-8.82626
クラブ	-8.82671
すること	-8.82739
久	-8.82753
あるいは	-8.82771
吉	-8.82962
機能	-8.83035
イギリス	-8.8313
)」	-8.83332
その後	-8.8334
▁2010	-8.83586
60	-8.83658
定	-8.83694
のような	-8.83713
ピ	-8.83962
ギ	-8.84226
尾	-8.84809
他	-8.8494
っている	-8.85091
アー	-8.8519
入	-8.85212
治	-8.85231
のうち	-8.85283
へと	-8.85287
領	-8.8548
記録	-8.85742
攻撃	-8.85878
サービス	-8.86177
男	-8.86293
黒	-8.86427
役	-8.86651
類	-8.86779
わ	-8.86846
ち	-8.86849
ナー	-8.86878
側	-8.8688
ペ	-8.87084
▁of	-8.87086
時代	-8.87102
企業	-8.87159
日には	-8.87197
ことが	-8.87375
英	-8.87498
品	-8.87589
群	-8.87687
道路	-8.87893
よう	-8.87935
全国	-8.88503
▁the	-8.89263
管理	-8.8931
実	-8.89478
雄	-8.89522
校	-8.89548
モデル	-8.89567
ソン	-8.89827
空	-8.90169
民	-8.9019
様々な	-8.90302
々	-8.9048
政府	-8.90656
江	-8.90719
八	-8.90798
〜	-8.90814
したが	-8.90909
艦	-8.90933
ビル	-8.90979
松	-8.90989
なかった	-8.91102
非	-8.91152
ゲ	-8.91308
宗	-8.91355
ヴィ	-8.91366
例	-8.91485
の中で	-8.91661
夫	-8.9172
ファ	-8.91837
条	-8.92105
協会	-8.92126
▁2011	-8.92311
国家	-8.9237
バンド	-8.9243
生活	-8.92494
あ	-8.92996
ダー	-8.93095
▁2012	-8.93232
御	-8.93254
人が	-8.93444
こう	-8.93489
敵	-8.93652
販売	-8.93744
親	-8.93786
▁2009	-8.94326
調査	-8.94365
構造	-8.94413
相	-8.94432
千	-8.94465
林	-8.94468
▁2014	-8.94595
んだ	-8.94691
米	-8.94969
量	-8.9507
ベル	-8.95479
一部	-8.95536
沢	-8.95576
▁2008	-8.95672
団体	-8.95711
ゼ	-8.95817
▁2015	-8.95847
80	-8.95864
大正	-8.96064
▁2016	-8.96165
シャ	-8.96249
▁2017	-8.96592
女子	-8.96633
記	-8.96701
中に	-8.96776
党	-8.96958
を受けた	-8.9715
になっている	-8.97367
においては	-8.97507
通り	-8.97524
▁2013	-8.97568
&	-8.97893
環境	-8.97916
fc	-8.98065
以上	-8.9808
高等学校	-8.98104
であったが	-8.98255
the	-8.98371
合	-8.98507
食	-8.98517
中学校	-8.98622
表	-8.98738
車両	-8.98789
▁2007	-8.98875
カル	-8.98895
港	-8.99012
士	-8.99069
春	-8.99178
業	-8.99258
0	-8.99305
ものである	-8.99445
ファン	-8.99493
津	-8.99662
足	-8.99861
さん	-9.00014
場所	-9.00108
タイ	-9.00135
波	-9.00238
特別	-9.00268
にあった	-9.00296
小学校	-9.00308
ホ	-9.00385
シングル	-9.00413
母	-9.00417
z	-9.00463
のように	-9.00658
カード	-9.00765
連	-9.00793
スポーツ	-9.00842
オー	-9.00857
ヴァ	-9.00864
リング	-9.00901
mm	-9.01207
初の	-9.01212
員	-9.01228
説	-9.01308
里	-9.01328
高校	-9.01333
レイ	-9.01365
レース	-9.01397
太	-9.01513
制度	-9.01608
されており	-9.01663
路線	-9.01711
上の	-9.01935
ぎ	-9.01972
ジャ	-9.02061
を務めた	-9.02223
器	-9.02244
レン	-9.02256
左	-9.02546
根	-9.02569
岩	-9.02756
新しい	-9.02822
▁2018	-9.03045
ジョン	-9.0311
”	-9.03161
航空	-9.03201
生産	-9.03232
建設	-9.03253
土	-9.03336
制作	-9.03496
ロン	-9.03559
葉	-9.0369
聖	-9.0372
になり	-9.03924
エン	-9.03982
教会	-9.04113
発売	-9.04264
ば	-9.04337
守	-9.0446
都	-9.04731
利	-9.04813
右	-9.04856
されて	-9.04931
師	-9.05093
赤	-9.05179
隊	-9.0528
藩	-9.05289
そして	-9.05518
角	-9.05665
銀行	-9.05865
総合	-9.05906
それぞれ	-9.05907
字	-9.05953
之	-9.06008
死	-9.06009
ホーム	-9.06025
職	-9.0614
出場	-9.06277
委員会	-9.06324
よ	-9.06516
電	-9.06544
良	-9.06846
感	-9.06883
▁2	-9.07201
知	-9.07284
弾	-9.0737
中の	-9.07397
半	-9.07419
cd	-9.07466
のある	-9.07502
海軍	-9.07536
同じ	-9.07697
再び	-9.07718
作戦	-9.07745
▁2006	-9.07815
ガー	-9.07881
父	-9.07975
リア	-9.0801
戦闘	-9.08088
誌	-9.08152
徳	-9.08311
教	-9.08402
基	-9.0844
イベント	-9.0848
ヌ	-9.08486
>	-9.08765
人間	-9.08823
ランド	-9.09084
声	-9.09249
第一	-9.09266
広	-9.09276
火	-9.09447
th	-9.0946
などで	-9.09505
団	-9.09512
ビー	-9.09515
これは	-9.09522
設計	-9.09663
製	-9.10082
編成	-9.10254
ような	-9.10305
横	-9.10337
路	-9.10342
永	-9.10468
使用	-9.1047
忠	-9.10722
産業	-9.10783
ガン	-9.10786
月から	-9.10851
機関	-9.10868
を行い	-9.11013
公園	-9.11391
させ	-9.1145
ご	-9.11533
ハイ	-9.11653
今	-9.11703
企画	-9.11741
っていた	-9.11785
戸	-9.11857
翌	-9.11873
アメリカ合衆国	-9.12
▁そのため	-9.12101
最初の	-9.12162
ロシア	-9.12301
カン	-9.12313
当	-9.1236
70	-9.12523
状況	-9.12612
デザイン	-9.12628
を中心に	-9.12661
キャラクター	-9.12682
優勝	-9.12871
▁2019	-9.12919
熱	-9.12997
ところ	-9.13013
達	-9.13164
人物	-9.13189
一般	-9.13199
これ	-9.13278
フィ	-9.13344
ブル	-9.13397
に対し	-9.13412
再	-9.13484
神社	-9.13641
しない	-9.13686
部隊	-9.13727
によれば	-9.13744
ヘ	-9.13813
サー	-9.13859
堂	-9.1389
とし	-9.1394
ッ	-9.13972
湖	-9.14116
主に	-9.1412
自動車	-9.1413
エンジン	-9.14142
節	-9.14477
としている	-9.14596
鉄	-9.14617
政治	-9.14717
日まで	-9.14782
内の	-9.14835
jr	-9.14858
独立	-9.14883
イタリア	-9.14927
スーパー	-9.14946
だけ	-9.1496
契約	-9.15026
シン	-9.15109
命	-9.15111
身	-9.15326
によると	-9.15458
省	-9.15534
ヨーロッパ	-9.15558
パー	-9.15657
以降	-9.15732
の一部	-9.15746
バン	-9.15772
北海道	-9.15795
試験	-9.15828
年度	-9.159
紙	-9.15954
集	-9.1609
▁a	-9.16116
会議	-9.16326
200	-9.16445
ね	-9.16576
自	-9.16665
等の	-9.1695
京都	-9.17139
はこの	-9.17226
ic	-9.17322
章	-9.17433
」、「	-9.17553
2000	-9.1761
族	-9.17667
タン	-9.17853
ではない	-9.17874
森	-9.17896
六	-9.17903
ジェ	-9.17995
属	-9.18126
工場	-9.18336
ドラマ	-9.18528
進	-9.1864
出身の	-9.1871
保	-9.18801
交通	-9.18865
に位置する	-9.18921
などが	-9.19036
たち	-9.19058
モン	-9.19211
れ	-9.1922
球	-9.19357
からは	-9.19387
表現	-9.19454
最も	-9.19542
ラジオ	-9.19563
ること	-9.19592
35	-9.19616
al	-9.19659
教授	-9.19694
薬	-9.19737
▁日本	-9.19776
利用	-9.1983
デビュー	-9.19924
あり	-9.20024
文字	-9.20161
太郎	-9.20177
||	-9.20215
板	-9.20311
できない	-9.2038
結果	-9.20401
前に	-9.20431
生まれ	-9.20433
st	-9.20529
ライブ	-9.20542
▁2005	-9.20749
公開	-9.20914
時の	-9.21025
▁一方	-9.21497
陸軍	-9.21581
たい	-9.21657
彼の	-9.21818
層	-9.21834
効果	-9.21859
個	-9.21879
状	-9.21894
言語	-9.22018
能力	-9.22049
条件	-9.22089
輸送	-9.22244
工業	-9.22501
市の	-9.22506
反	-9.22536
図	-9.22557
七	-9.22563
宇宙	-9.22681
楽	-9.22684
が行われた	-9.22742
彼は	-9.22901
アニメ	-9.22932
秒	-9.23059
チャ	-9.23093
副	-9.23105
来	-9.2311
せ	-9.23213
であるが	-9.23299
ことができる	-9.23338
マル	-9.23364
メンバー	-9.2339
に伴い	-9.23405
開始	-9.23407
と同じ	-9.23453
英語	-9.23567
そう	-9.23631
何	-9.23632
用の	-9.2385
警察	-9.24004
悪	-9.24026
製作	-9.24221
戦で	-9.24292
夏	-9.24294
政策	-9.24373
経営	-9.25081
担当	-9.25161
製造	-9.25216
年代	-9.25353
時代の	-9.25387
しか	-9.25412
部分	-9.25434
45	-9.25505
運転	-9.257
最大	-9.25726
形式	-9.25733
られる	-9.25741
経	-9.25747
諸	-9.25762
ひ	-9.25823
区間	-9.25826
青	-9.25851
草	-9.25882
500	-9.26101
ドル	-9.26178
通信	-9.26299
パリ	-9.26347
製品	-9.26489
物語	-9.26556
コー	-9.26671
雑誌	-9.26709
加	-9.26711
バル	-9.26713
インド	-9.26788
だったが	-9.26845
にあたる	-9.26853
志	-9.2694
岡	-9.27038
小説	-9.27047
画	-9.27132
アイ	-9.27142
取り	-9.27227
ハン	-9.27269
ぶ	-9.27285
南部	-9.27358
満	-9.27396
デン	-9.2752
界	-9.27551
以来	-9.27551
ルー	-9.2762
フル	-9.27626
超	-9.27675
差	-9.27699
帯	-9.27705
おり	-9.27792
京	-9.27841
質	-9.27948
坂	-9.28011
病	-9.28207
運営	-9.28208
ようになった	-9.28239
自然	-9.28339
自身の	-9.28366
48	-9.28543
参加	-9.28648
祭	-9.28821
列車	-9.28829
ta	-9.28834
主義	-9.28847
第二	-9.2886
段	-9.28998
河	-9.29043
パン	-9.29066
どう	-9.29114
装置	-9.29165
ネット	-9.29192
90	-9.29261
未	-9.29304
計	-9.29352
ロック	-9.29396
そ	-9.29404
血	-9.29588
建築	-9.29674
世紀	-9.2978
向け	-9.29892
ライン	-9.29923
崎	-9.30072
家の	-9.30203
伝	-9.30241
フリー	-9.3047
ジュ	-9.30545
異	-9.30548
データ	-9.30561
陽	-9.30681
男性	-9.30833
スペイン	-9.30936
秀	-9.31031
公演	-9.3115
ると	-9.3116
便	-9.31238
開	-9.31324
玉	-9.31329
枠	-9.31339
学生	-9.31351
ダム	-9.31488
以上の	-9.31495
フェ	-9.31669
▁3	-9.31745
歴史	-9.31784
病院	-9.31854
支援	-9.31869
us	-9.31937
in	-9.31997
龍	-9.32105
変更	-9.32163
構成	-9.32205
なく	-9.32292
店舗	-9.32298
クラス	-9.32335
個人	-9.3247
が多く	-9.32569
せん	-9.32649
方法	-9.32662
以外の	-9.32829
とされている	-9.32921
を受けて	-9.32934
砲	-9.32966
越	-9.33032
夜	-9.33032
登録	-9.33032
ていたが	-9.33074
られ	-9.33082
レー	-9.33138
人気	-9.33188
付	-9.33286
以下の	-9.3336
大統領	-9.33366
国内	-9.33386
骨	-9.33424
スタ	-9.33442
地球	-9.33782
("	-9.33796
像	-9.33963
er	-9.33969
開催	-9.34009
内容	-9.34039
が多い	-9.34041
源	-9.34249
行動	-9.34302
評価	-9.34365
ハー	-9.34471
細胞	-9.3451
工事	-9.34669
け	-9.34676
乗	-9.34694
蔵	-9.34727
アジア	-9.34891
最高	-9.35093
最後の	-9.35137
のための	-9.35407
国道	-9.35457
名は	-9.35467
の一つ	-9.35617
ing	-9.35723
いて	-9.35825
発表	-9.35989
ック	-9.36019
ツアー	-9.36056
ライ	-9.36076
運用	-9.3611
設定	-9.36227
値	-9.36291
タイトル	-9.3631
作曲	-9.36517
ニュー	-9.36529
はその	-9.36569
部門	-9.36733
増	-9.36765
以下	-9.3685
司	-9.37085
科学	-9.37097
などを	-9.37109
+	-9.37114
せず	-9.37195
羽	-9.3725
現在は	-9.37273
兼	-9.37333
調	-9.37465
藤	-9.37489
to	-9.37609
漫画	-9.37657
キー	-9.37665
政権	-9.3784
系統	-9.38012
▁2004	-9.38188
塩	-9.3821
飛行	-9.38217
スタジオ	-9.38234
メートル	-9.38324
q	-9.38495
ジー	-9.38593
居	-9.38656
幸	-9.38821
率	-9.38896
re	-9.38922
出演	-9.38959
対応	-9.38978
樹	-9.39043
たが	-9.39073
ガス	-9.39093
no	-9.39121
現在	-9.39124
事故	-9.39167
されていない	-9.39193
条約	-9.39276
万円	-9.39289
入り	-9.39324
ユ	-9.3947
32	-9.39502
九州	-9.39503
▁m	-9.39505
郷	-9.3966
市民	-9.39686
ステージ	-9.39768
毛	-9.39802
舞台	-9.39804
かつて	-9.39824
38	-9.39915
36	-9.40026
研究所	-9.40063
低	-9.40183
ていない	-9.4022
nhk	-9.4035
br	-9.40486
選挙	-9.4057
なる	-9.40633
案	-9.40635
でもある	-9.40678
妻	-9.40763
豊	-9.4082
韓国	-9.40875
映像	-9.40918
新聞	-9.40943
産	-9.40981
家族	-9.40989
上で	-9.4102
こともある	-9.41116
芸術	-9.41361
レス	-9.41367
階	-9.41461
%	-9.4147
作家	-9.41487
浦	-9.41519
彦	-9.41524
輪	-9.41631
営業	-9.41677
市立	-9.41764
kg	-9.41784
ことがある	-9.41822
ポイント	-9.41931
席	-9.42043
ニューヨーク	-9.42053
le	-9.42192
市場	-9.42254
張	-9.42418
関	-9.42457
場合は	-9.42516
編	-9.42517
行政	-9.42525
整備	-9.42543
ろ	-9.42653
“	-9.42788
込み	-9.42845
雲	-9.4296
っ	-9.43009
近	-9.4303
自由	-9.43042
理	-9.43065
実験	-9.43273
na	-9.43295
素	-9.43365
▁彼は	-9.43373
新たな	-9.4338
▁同	-9.43389
客	-9.4343
していたが	-9.43441
国民	-9.43444
横浜	-9.43467
海外	-9.43536
もあり	-9.43667
トゥ	-9.43705
助	-9.43706
▁これらの	-9.43843
かい	-9.43858
台湾	-9.43951
表示	-9.43961
後は	-9.43981
トラ	-9.43986
人は	-9.44051
てきた	-9.44109
軍事	-9.44265
持	-9.44318
仁	-9.4434
出版	-9.44351
▁※	-9.4458
かつ	-9.44596
撮影	-9.44601
ほぼ	-9.44622
敗	-9.44638
空港	-9.44649
プロジェクト	-9.44872
ん	-9.44912
ローマ	-9.44977
び	-9.4505
跡	-9.45106
▁特に	-9.4513
▁2000	-9.45135
ザー	-9.4515
集団	-9.45298
チェ	-9.45304
残	-9.45313
自分の	-9.45411
オブ	-9.4544
指定	-9.45468
福	-9.45497
トップ	-9.45546
十	-9.45623
ふ	-9.45631
作業	-9.45712
行為	-9.45721
ど	-9.45743
動物	-9.45798
これを	-9.45881
香	-9.45953
ダン	-9.45995
ロンドン	-9.46103
が存在する	-9.46245
方面	-9.4625
-1	-9.46335
2010	-9.46453
37	-9.46465
ch	-9.46512
電気	-9.46666
周	-9.46739
鳥	-9.4682
走	-9.46838
年より	-9.46848
秋	-9.46866
現代	-9.46882
決定	-9.47023
断	-9.47068
高い	-9.47108
管	-9.47198
終了	-9.47218
を見	-9.47259
ット	-9.47276
▁17	-9.47326
劇場	-9.4735
トリ	-9.47407
これらの	-9.4755
技	-9.47663
料理	-9.47689
湾	-9.47725
割	-9.47751
少年	-9.47765
幅	-9.4784
解	-9.47877
在	-9.47914
卒業	-9.47943
元年	-9.47957
額	-9.47958
勝利	-9.4798
de	-9.47989
バック	-9.47992
としての	-9.48001
ことは	-9.48052
渡	-9.48056
までの	-9.4813
重要な	-9.48154
タイム	-9.48186
→	-9.4823
業務	-9.48273
』『	-9.48341
メディア	-9.48355
サイト	-9.48418
勢	-9.4842
将軍	-9.4848
夢	-9.48529
瀬	-9.48581
33	-9.48635
紀	-9.48667
ニュース	-9.48795
ホテル	-9.48814
酒	-9.4885
移動	-9.48902
者の	-9.48968
遠	-9.4924
帝	-9.49267
勢力	-9.49278
文学	-9.49348
展開	-9.49396
ーン	-9.49406
線の	-9.49467
意	-9.49531
隆	-9.49563
強	-9.49573
時には	-9.49576
泉	-9.49654
動	-9.49714
期間	-9.49803
ホール	-9.49854
ma	-9.49877
野球	-9.49879
絵	-9.49935
軍の	-9.49972
極	-9.50005
するために	-9.50153
処理	-9.50163
人口	-9.50271
マイ	-9.5028
系の	-9.50315
ぐ	-9.50364
批判	-9.50396
軽	-9.50457
方式	-9.50497
植物	-9.50555
常	-9.50603
数は	-9.50624
とき	-9.50637
池	-9.50792
反応	-9.50805
名古屋	-9.50849
会長	-9.50983
自ら	-9.51008
伊	-9.51029
合併	-9.51037
を行っている	-9.51043
楽曲	-9.51083
平均	-9.51153
対象	-9.512
全ての	-9.51202
電子	-9.51261
にとって	-9.5132
搭載	-9.51352
ブランド	-9.51405
雨	-9.51407
魚	-9.51431
華	-9.51452
代目	-9.51453
演奏	-9.51543
比	-9.51563
洋	-9.51585
体制	-9.51609
天皇	-9.51651
縁	-9.51659
co	-9.51692
順	-9.517
表記	-9.51846
初代	-9.5192
300	-9.5196
▁4	-9.51968
直接	-9.5199
34	-9.52121
興	-9.52175
次の	-9.522
名前	-9.52276
ブラ	-9.52298
統合	-9.5233
オリジナル	-9.52474
オリンピック	-9.52497
霊	-9.52499
商品	-9.52503
喜	-9.52553
共同	-9.52584
程度	-9.52618
▁de	-9.52635
為	-9.52667
異なる	-9.52694
単	-9.527
ヴ	-9.52705
片	-9.5272
するため	-9.52772
銀	-9.52848
キン	-9.52851
エネルギー	-9.52988
▁2003	-9.53087
せい	-9.53281
かん	-9.53317
転	-9.53324
竹	-9.5334
間の	-9.53353
競技	-9.53357
予定	-9.53384
列	-9.53387
よく	-9.53431
記念	-9.53476
ビデオ	-9.53664
隻	-9.53678
2008	-9.53693
核	-9.53711
を持ち	-9.53761
宿	-9.53842
セット	-9.53894
コース	-9.53992
内に	-9.54016
ウィ	-9.54048
ed	-9.54139
理論	-9.54154
写真	-9.54177
機構	-9.54226
2009	-9.54277
複数の	-9.54283
2007	-9.54323
園	-9.54324
民族	-9.54326
学園	-9.54379
者が	-9.54407
設置	-9.54407
連続	-9.54419
域	-9.54448
基準	-9.5451
統一	-9.54677
もので	-9.5468
39	-9.54744
雪	-9.54848
経験	-9.54859
頼	-9.54919
付け	-9.54968
選	-9.5513
費	-9.55181
江戸	-9.55262
▁in	-9.55299
者は	-9.55342
目的	-9.55389
空間	-9.55399
漢	-9.55418
北部	-9.55459
レコード	-9.55472
令	-9.55545
していない	-9.55631
佐	-9.55642
弘	-9.55801
開業	-9.55877
の第	-9.55915
前の	-9.5594
府	-9.55973
好	-9.56011
宝	-9.56046
なら	-9.56046
カップ	-9.56075
街	-9.56128
シーン	-9.56149
関連	-9.562
ロス	-9.56341
項	-9.56357
百	-9.56547
難	-9.5656
能	-9.56587
格	-9.56652
防衛	-9.56658
向	-9.56672
私	-9.56812
造	-9.56835
盤	-9.56847
ディー	-9.56856
勝ち	-9.56897
の大	-9.56911
言	-9.56988
庁	-9.57058
仕様	-9.57067
ユニット	-9.5709
初めて	-9.57224
配信	-9.57234
引き	-9.57283
非常に	-9.57326
陣	-9.5743
仏	-9.57523
ワン	-9.57543
運行	-9.57712
はない	-9.57718
2011	-9.57753
王国	-9.57841
学者	-9.57864
味	-9.57897
枚	-9.58016
にかけて	-9.58095
艦隊	-9.58128
プレイ	-9.5813
コーナー	-9.5825
観	-9.58257
ッツ	-9.58271
ノー	-9.58363
倉	-9.58516
サッカー	-9.58597
矢	-9.58602
専門	-9.58609
リスト	-9.58673
軌道	-9.58696
犬	-9.58698
することで	-9.5874
イギリスの	-9.58743
ベスト	-9.58805
報道	-9.58833
▁このため	-9.58931
ポーランド	-9.58946
クス	-9.58962
浜	-9.59
▁km	-9.59012
日本人	-9.59124
ヴェ	-9.59254
土地	-9.59264
べ	-9.5938
▁()	-9.59396
別の	-9.59505
打	-9.5953
男子	-9.59598
予選	-9.59676
la	-9.5971
それを	-9.59737
訳	-9.60037
プログラム	-9.60043
セン	-9.60085
兄弟	-9.60108
メーカー	-9.60122
万人	-9.60371
かった	-9.60414
全て	-9.6062
もしくは	-9.60644
アメリカの	-9.60677
逆	-9.60687
候補	-9.60732
ko	-9.60738
ジョ	-9.608
デル	-9.60841
なり	-9.60877
スキー	-9.61018
遊	-9.61141
軸	-9.61174
2012	-9.61265
44	-9.61336
結婚	-9.61427
2006	-9.61427
首相	-9.61452
ドゥ	-9.61524
任	-9.61562
選手権	-9.61569
東京都	-9.6157
盛	-9.61574
の娘	-9.61579
工	-9.61598
トー	-9.61644
サイ	-9.61846
農業	-9.61949
引	-9.61995
を務める	-9.61995
dvd	-9.6202
端	-9.62056
ライト	-9.6208
建	-9.62187
保護	-9.62202
印	-9.62213
られている	-9.62276
を示す	-9.62379
同盟	-9.62426
弁	-9.62453
億	-9.62456
裏	-9.6249
te	-9.62501
観測	-9.62537
ss	-9.62556
反対	-9.62613
番号	-9.62623
規定	-9.62631
詩	-9.62682
se	-9.62731
図書館	-9.62731
帝国	-9.62737
得点	-9.6282
▁2002	-9.62829
シティ	-9.62874
ドン	-9.62878
を通じて	-9.63013
などに	-9.63018
いくつかの	-9.6302
したため	-9.63065
取	-9.6309
で行われた	-9.63141
革命	-9.63154
筋	-9.63174
ヨ	-9.63207
テン	-9.63221
特	-9.63225
スタイル	-9.63331
障害	-9.6337
バイ	-9.63457
を参照	-9.63497
善	-9.63499
早	-9.63523
it	-9.63529
若	-9.63578
大型	-9.63605
セル	-9.6361
00	-9.63636
広島	-9.63642
資料	-9.63643
出し	-9.63697
になると	-9.63697
上に	-9.63713
景	-9.6378
をもって	-9.63818
カナダ	-9.6382
するなど	-9.6384
にあり	-9.63939
形態	-9.63954
酸	-9.63961
しょう	-9.64073
発行	-9.6408
委員	-9.64142
余	-9.64202
皇帝	-9.6435
存在	-9.64443
れば	-9.64556
オン	-9.64567
望	-9.64594
視	-9.64647
ショー	-9.64762
の研究	-9.64791
となって	-9.64846
拡大	-9.64857
46	-9.64865
me	-9.6489
55	-9.64956
の戦い	-9.64997
首	-9.65086
だい	-9.65104
介	-9.65128
と呼ぶ	-9.65142
ii	-9.6515
歌手	-9.65208
sa	-9.65261
47	-9.65305
可能	-9.6531
当初は	-9.65383
温泉	-9.65398
としても	-9.65443
側の	-9.65464
君	-9.65536
メン	-9.65582
商	-9.65679
富	-9.65716
塔	-9.65739
娘	-9.65779
行き	-9.65793
俳優	-9.65903
オーストラリア	-9.6598
▁例えば	-9.66119
とその	-9.66133
新たに	-9.66332
ps	-9.66383
設立	-9.66383
改造	-9.66413
内で	-9.66415
本部	-9.66456
es	-9.66456
最	-9.66457
▁2001	-9.66558
貴	-9.66569
郎	-9.66614
小さな	-9.66615
圏	-9.66677
国立	-9.66754
連盟	-9.66913
at	-9.66959
一部の	-9.66987
出す	-9.67064
アップ	-9.6716
大臣	-9.67202
変化	-9.67265
を受ける	-9.6727
以後	-9.67304
そのまま	-9.67385
▁現在	-9.67416
基地	-9.6744
単位	-9.67446
が行われ	-9.67487
歳で	-9.67516
ラム	-9.67526
ミュージック	-9.67535
持ち	-9.67542
社長	-9.6758
康	-9.67584
に近い	-9.6761
末	-9.6766
宗教	-9.67671
倍	-9.67689
やま	-9.67878
2014	-9.67909
共和国	-9.67942
トル	-9.67945
関東	-9.67988
▁b	-9.68042
女優	-9.68045
tv	-9.6812
▁5	-9.68126
減	-9.68145
el	-9.68195
友	-9.68198
いわゆる	-9.68222
ゲン	-9.68222
とう	-9.68274
学部	-9.68326
服	-9.68348
ストーリー	-9.68361
毎年	-9.68487
連邦	-9.68494
機械	-9.6853
連絡	-9.68568
装備	-9.68585
キング	-9.68595
通算	-9.68603
収録	-9.68621
クラ	-9.68869
最大の	-9.68878
医療	-9.69011
圧	-9.69112
フォン	-9.69143
事務所	-9.69258
法律	-9.69276
引退	-9.69306
▁and	-9.69356
観光	-9.69365
ミン	-9.69367
標準	-9.6939
協力	-9.69406
2013	-9.6941
内閣	-9.69513
地元	-9.69519
んで	-9.69585
アメリカ合衆国の	-9.69647
ブリ	-9.69655
すべて	-9.69769
国の	-9.69772
湯	-9.69774
要	-9.69778
しん	-9.69809
アンド	-9.69877
制限	-9.69896
▁現在は	-9.69958
ほとんど	-9.69973
切り	-9.70052
ボー	-9.70106
』、『	-9.70165
ティー	-9.70182
生物	-9.70197
となっていた	-9.7022
するが	-9.70249
網	-9.70257
▁翌	-9.70335
ワールド	-9.70339
切	-9.70417
最終	-9.70463
に属する	-9.70492
の場合	-9.70568
九	-9.7059
ックス	-9.70683
バージョン	-9.70696
孫	-9.70772
速度	-9.70894
キャ	-9.70933
になって	-9.70938
完成	-9.70948
を指す	-9.71
と考えられている	-9.7101
メイン	-9.71036
専用	-9.71067
弟	-9.71079
名称	-9.7116
関西	-9.71178
▁6	-9.71274
交換	-9.71382
タイプ	-9.714
モー	-9.71406
丁目	-9.71414
en	-9.71494
際	-9.71509
のもの	-9.7162
深	-9.71642
時期	-9.71664
を開始した	-9.71667
奥	-9.71781
42	-9.71824
地震	-9.71855
竜	-9.71912
博物館	-9.71917
けん	-9.71924
ジャー	-9.72021
1000	-9.72061
生徒	-9.72201
2015	-9.7232
アフリカ	-9.72353
のか	-9.72361
剤	-9.72381
茶	-9.7241
においても	-9.7247
ソ連	-9.72484
たちは	-9.72486
以降は	-9.7255
議会	-9.72558
広く	-9.72626
テル	-9.72669
慶	-9.72725
方向	-9.728
ジン	-9.72847
議員	-9.7285
必要	-9.72853
改革	-9.72865
ごとに	-9.72878
貴族	-9.72899
連載	-9.72942
配置	-9.73096
限定	-9.73102
を意味する	-9.73144
すれば	-9.73163
ジョージ	-9.73167
、2010	-9.73197
停止	-9.73208
の間	-9.73247
急	-9.7327
脳	-9.73281
制御	-9.73297
柳	-9.73323
がいる	-9.73461
健	-9.73499
回転	-9.73504
イー	-9.73519
▁これ	-9.73534
劇	-9.73545
変	-9.7355
だけでなく	-9.73551
ミー	-9.73671
長い	-9.73736
2004	-9.73761
強い	-9.7378
43	-9.73814
がない	-9.73825
ニア	-9.73886
肉	-9.73941
位置	-9.74014
したり	-9.74019
分類	-9.7402
しばしば	-9.74052
×	-9.74101
桜	-9.74176
pc	-9.74198
のち	-9.7428
2005	-9.74296
連合	-9.7436
子供	-9.74376
商業	-9.74422
沼	-9.74424
▁s	-9.74478
形で	-9.74488
報告	-9.74496
神戸	-9.7451
ブルー	-9.74556
一方	-9.74687
as	-9.74696
だと	-9.74708
操作	-9.74749
フランスの	-9.7478
米国	-9.74788
シェ	-9.74809
黄	-9.74829
フォード	-9.74866
コード	-9.74958
初期	-9.75012
会員	-9.7505
唯一の	-9.75064
綱	-9.75127
!」	-9.75132
多数の	-9.75183
頃	-9.75269
の開発	-9.75278
に入り	-9.75402
▁1990	-9.7541
ジャン	-9.75423
マーク	-9.75492
える	-9.75581
冬	-9.7567
et	-9.75683
展示	-9.75887
ファー	-9.75995
自身	-9.76
提供	-9.7601
ルート	-9.76056
落	-9.76083
▁10	-9.76121
発展	-9.76176
スタッフ	-9.76188
mo	-9.76291
設備	-9.76345
▁formula	-9.76345
美術	-9.76393
してきた	-9.76395
年にかけて	-9.76451
記事	-9.76463
孝	-9.76571
のほか	-9.76602
欧州	-9.7664
機体	-9.76659
指導	-9.76687
カール	-9.76713
大陸	-9.76719
種類	-9.76728
営	-9.7673
プラ	-9.76741
文書	-9.76776
主人公	-9.76777
ダイ	-9.76783
同時に	-9.76785
型の	-9.76811
シャー	-9.76841
交流	-9.76841
すべての	-9.76927
自己	-9.76937
トラック	-9.76999
を結ぶ	-9.77012
400	-9.77082
ソフト	-9.77101
幕	-9.77102
子の	-9.7716
ことが多い	-9.77282
ボール	-9.77297
ケン	-9.77298
、2007	-9.77403
農	-9.77415
▁f	-9.77479
廃止	-9.776
ことになる	-9.77614
任務	-9.77801
油	-9.77859
を務め	-9.7788
デジタル	-9.77903
地上	-9.7793
辺	-9.77977
行われた	-9.78014
説明	-9.78046
コンピュータ	-9.7817
コル	-9.78187
にして	-9.78234
牛	-9.78265
からなる	-9.78384
の後	-9.78421
on	-9.78445
54	-9.78501
、2009	-9.78552
号線	-9.78573
、2008	-9.78593
要素	-9.7861
ともに	-9.78614
モード	-9.78653
付き	-9.78707
2016	-9.78719
距離	-9.78737
同社	-9.78752
41	-9.78767
)4	-9.78797
俊	-9.7885
法人	-9.78881
西部	-9.78994
まず	-9.79099
様	-9.7916
世の	-9.79163
仲	-9.79206
罪	-9.79229
訓練	-9.7939
ピアノ	-9.79511
中で	-9.79526
際に	-9.79526
いずれも	-9.79554
os	-9.79646
結	-9.79696
労働	-9.79753
選択	-9.79793
することができる	-9.79863
ネットワーク	-9.79912
▁8	-9.79963
▁大	-9.80002
▁16	-9.80059
高速	-9.80089
を得た	-9.80151
旅	-9.80258
彼	-9.80274
と同様に	-9.80301
原作	-9.80346
対策	-9.80371
栄	-9.80384
分の	-9.80394
博	-9.8044
使	-9.80443
壁	-9.8045
▁だが	-9.80454
資金	-9.80497
税	-9.80549
オル	-9.80635
定義	-9.80686
と言う	-9.80823
カラー	-9.80826
ウス	-9.80838
競走	-9.80843
58	-9.80847
周辺	-9.80876
込む	-9.80909
朝鮮	-9.81062
球団	-9.8108
貞	-9.81084
ほう	-9.81101
イングランド	-9.81119
支配	-9.81202
ゾ	-9.8121
▁7	-9.81223
だけで	-9.81226
となっており	-9.81232
日より	-9.81247
保存	-9.81343
本塁打	-9.81428
▁c	-9.81558
同じく	-9.81563
書き	-9.81589
do	-9.81633
リオ	-9.81672
出力	-9.81726
ヴァン	-9.81768
接続	-9.81817
65	-9.81829
進出	-9.81834
▁日本では	-9.81839
ていく	-9.81859
立ち	-9.81888
ドイツの	-9.81917
▁1999	-9.81977
窓	-9.82037
冠	-9.82061
李	-9.82102
オープン	-9.82135
フォ	-9.82136
ヴァー	-9.82144
自治体	-9.82193
ハウス	-9.82213
公式	-9.82218
ユー	-9.82222
智	-9.82276
メル	-9.82293
名の	-9.82344
かわ	-9.82366
命令	-9.82468
機器	-9.82484
交渉	-9.82484
出した	-9.8249
昌	-9.82506
lo	-9.82546
月まで	-9.82547
化学	-9.82563
分野	-9.82583
の名前	-9.82619
、2006	-9.8264
スタート	-9.82695
タル	-9.82726
ca	-9.82748
あまり	-9.82784
中心	-9.82818
可能性	-9.82823
、2011	-9.82834
銃	-9.82883
▁18	-9.82934
電力	-9.8294
▁元	-9.82945
ter	-9.82984
ウィリアム	-9.83033
ゴール	-9.83067
ga	-9.83089
2017	-9.83137
純	-9.83151
64	-9.83169
オランダ	-9.8322
過	-9.83228
クル	-9.83308
留	-9.83373
もう	-9.83381
結合	-9.83393
てしまう	-9.83429
ボン	-9.83443
柱	-9.83474
を果たした	-9.83558
中継	-9.83604
パーク	-9.83626
カラ	-9.83657
憲法	-9.83672
東部	-9.83675
領域	-9.83685
部長	-9.83697
延長	-9.83759
地下	-9.83821
ゆ	-9.83837
翼	-9.83876
本線	-9.83887
アス	-9.83916
打ち	-9.83945
を用いて	-9.84165
相手	-9.84166
声優	-9.84199
報	-9.84223
ro	-9.84249
独自の	-9.84261
車体	-9.84305
平和	-9.84349
言葉	-9.84349
住宅	-9.84354
伝説	-9.84357
年代に	-9.84421
分離	-9.8447
49	-9.84518
きた	-9.8454
積	-9.84557
茂	-9.84564
ちゃん	-9.84609
速	-9.84656
王座	-9.84673
ことになった	-9.84731
で開催された	-9.84778
ウェイ	-9.84796
リリース	-9.84814
投票	-9.8482
意味	-9.84823
ホー	-9.84847
までは	-9.84897
-2	-9.84922
の結果	-9.84928
固定	-9.84962
対立	-9.84966
グラ	-9.84973
影響	-9.84996
従来の	-9.85
インターネット	-9.85021
ごう	-9.85146
姫	-9.85214
布	-9.85277
仕事	-9.85429
じょう	-9.85505
▁12	-9.8556
装	-9.85609
物質	-9.85611
伯	-9.85638
の一	-9.85656
とされた	-9.85751
についても	-9.8578
ベン	-9.85784
論文	-9.85793
剣	-9.85829
杯	-9.85875
cc	-9.85916
枝	-9.85973
脚	-9.85993
グリ	-9.86012
da	-9.86074
住民	-9.86074
堀	-9.86081
などがある	-9.86143
もあった	-9.86168
エス	-9.86249
購入	-9.86345
会場	-9.8635
付近	-9.86351
修	-9.86356
大きく	-9.86366
75	-9.86457
ポン	-9.86489
ざ	-9.86531
の中	-9.86538
補	-9.86566
兄	-9.86617
こともあり	-9.86721
部屋	-9.86725
次郎	-9.8675
プレ	-9.86757
を取り	-9.86776
軍は	-9.86787
tbs	-9.86825
少女	-9.86849
乱	-9.86886
fa	-9.86901
)3	-9.86907
と同時に	-9.86919
議	-9.86928
ようになる	-9.86957
あった	-9.86965
ペン	-9.87041
甲	-9.87064
ポール	-9.87065
関数	-9.87109
術	-9.87141
獲得	-9.8716
実施	-9.87162
期待	-9.8721
サイド	-9.87254
傷	-9.87271
計算	-9.87288
.2	-9.87308
材	-9.8731
、2012	-9.87311
導入	-9.8732
クロ	-9.87361
基本	-9.87405
いない	-9.87415
ヘル	-9.87424
オス	-9.87461
姓	-9.87496
-3	-9.87533
を有する	-9.87539
ものであった	-9.87548
追	-9.8757
議論	-9.87613
の名	-9.87633
世は	-9.87659
推進	-9.87689
2003	-9.87726
礼	-9.87859
まだ	-9.87865
演出	-9.87865
▁それ	-9.87896
復帰	-9.87959
全体	-9.87971
部の	-9.87976
指	-9.88006
の間に	-9.88026
2018	-9.88048
名が	-9.88075
ものは	-9.88096
精神	-9.88098
be	-9.88129
解散	-9.88136
is	-9.88169
植民地	-9.88233
受	-9.88259
目標	-9.8835
のメンバー	-9.88363
ar	-9.88372
投手	-9.88401
しなかった	-9.88408
トンネル	-9.88441
ダンス	-9.88444
意識	-9.88478
旗	-9.88494
合成	-9.88595
レベル	-9.88598
ベイ	-9.88616
56	-9.88651
普通	-9.88673
▁現在の	-9.88776
戦車	-9.88793
歯	-9.8882
知事	-9.88858
通常	-9.88869
ことに	-9.88901
▁そこで	-9.88936
ソフトウェア	-9.88952
検査	-9.89009
タウン	-9.89028
医	-9.89142
#	-9.89176
時代に	-9.89222
なか	-9.89248
ビン	-9.89282
をする	-9.89315
主演	-9.89437
師団	-9.89481
フィールド	-9.89491
ac	-9.89502
交	-9.89504
ルール	-9.89512
まま	-9.89553
氷	-9.89556
民主党	-9.89566
精	-9.89593
▁これにより	-9.89664
護	-9.8973
眼	-9.89731
デー	-9.89788
キリスト教	-9.89828
電話	-9.8984
or	-9.89902
sc	-9.89909
▁1980	-9.8991
ヶ月	-9.89923
更新	-9.89935
1990	-9.90005
チン	-9.90064
アーティスト	-9.90079
密	-9.90084
将	-9.90147
破	-9.90166
らが	-9.90203
のひとつ	-9.90239
げ	-9.90286
週	-9.903
ドー	-9.90332
ia	-9.90346
ms	-9.90366
パス	-9.90384
ジャパン	-9.90445
の子	-9.90462
特徴	-9.90462
に加え	-9.90466
です	-9.90493
町の	-9.905
とされ	-9.90543
優	-9.90548
具	-9.9063
id	-9.90647
▁<	-9.9067
たり	-9.90679
乳	-9.90685
リス	-9.907
57	-9.90725
愛知県	-9.908
の中心	-9.90823
現象	-9.9084
に入る	-9.90895
の歴史	-9.90915
込んだ	-9.90982
▁11	-9.91073
録音	-9.91154
殿	-9.91264
諸島	-9.91286
本社	-9.91384
ことも	-9.91423
防	-9.91453
記述	-9.91459
被害	-9.91486
の存在	-9.91546
就任	-9.91563
したもの	-9.91571
ha	-9.91595
に関しては	-9.91629
学会	-9.91671
手法	-9.91673
うち	-9.91684
位の	-9.91687
刀	-9.91692
分析	-9.91724
マス	-9.91767
発生	-9.91811
策	-9.91832
ブロック	-9.91875
緑	-9.91913
エリア	-9.91926
...	-9.9193
料	-9.91933
2002	-9.91939
ブラック	-9.91945
性能	-9.91966
実際に	-9.91978
いい	-9.92021
週間	-9.92028
完全	-9.92067
いく	-9.92077
砂	-9.92196
を除く	-9.92201
放	-9.92248
▁1998	-9.92249
メキシコ	-9.92259
ピー	-9.92331
金属	-9.92338
老	-9.92344
陸	-9.92348
むら	-9.92366
に由来する	-9.92483
2001	-9.92522
武器	-9.92572
仕	-9.92599
ベルリン	-9.92627
画家	-9.92664
▁本	-9.9269
既に	-9.92703
政党	-9.92726
は約	-9.9276
射	-9.92767
デス	-9.92843
規制	-9.92861
イル	-9.92863
国鉄	-9.92866
史上	-9.92896
務	-9.92912
成功	-9.92924
▁to	-9.92961
香港	-9.92999
登場	-9.93034
ギター	-9.93144
課	-9.93227
不足	-9.93308
ケース	-9.93347
絶	-9.93359
エイ	-9.93381
収	-9.93393
ne	-9.93399
穴	-9.93435
!』	-9.93475
なくなった	-9.93482
ナン	-9.93584
おお	-9.93613
▁e	-9.93623
通称	-9.93697
鈴木	-9.93716
場合もある	-9.93738
ブラジル	-9.93832
カメラ	-9.93875
拡張	-9.93923
コンサート	-9.93923
go	-9.93961
サル	-9.93993
航空機	-9.94006
チュ	-9.94057
エー	-9.94124
の中に	-9.9417
抵抗	-9.94191
ソロ	-9.94213
独	-9.94238
底	-9.94259
セント	-9.94275
これら	-9.94297
シア	-9.94363
従	-9.94377
温	-9.94404
、2014	-9.94513
ション	-9.94515
唐	-9.94536
動き	-9.94582
症	-9.94788
を始め	-9.94794
スク	-9.94851
ge	-9.94888
度の	-9.94897
レッド	-9.94911
鬼	-9.94959
▁当初は	-9.95003
自動	-9.9502
gp	-9.95052
共に	-9.95096
ワールドカップ	-9.9513
の元	-9.95371
の影響	-9.95395
分子	-9.95402
メイ	-9.95407
氏の	-9.95456
オーストリア	-9.9548
ソー	-9.95494
遺跡	-9.95532
されたが	-9.95564
▁9	-9.95599
ロード	-9.95667
電車	-9.95676
ジュニア	-9.95688
度目の	-9.95723
ti	-9.95753
顔	-9.95756
ネス	-9.95804
第三	-9.95819
神経	-9.95828
テスト	-9.95832
派の	-9.95864
、2013	-9.95903
安全	-9.95948
月より	-9.95973
旅行	-9.9599
太平洋	-9.96075
市内	-9.96082
99	-9.96156
鶴	-9.9618
劉	-9.96194
死去	-9.96208
製の	-9.96235
也	-9.96243
それぞれの	-9.96244
改正	-9.96262
テレビドラマ	-9.9628
プレイヤー	-9.96288
のまま	-9.96383
編集	-9.96394
pa	-9.9641
日本語	-9.96428
三郎	-9.96434
卵	-9.96451
であるため	-9.9647
ゲスト	-9.96481
ほ	-9.96562
をはじめ	-9.96564
ページ	-9.96607
指揮	-9.96632
建物	-9.96642
と対戦し	-9.96666
事実	-9.9672
ヒル	-9.96728
アナ	-9.96807
、2005	-9.96816
コーチ	-9.96856
▁後に	-9.96876
禁止	-9.96896
時は	-9.96898
房	-9.96958
可能な	-9.9702
労働者	-9.97053
戦い	-9.97062
li	-9.97069
率いる	-9.97094
焼	-9.97136
姿	-9.97138
燃料	-9.97168
紀元前	-9.97175
理由	-9.97176
確認	-9.97259
gi	-9.97266
登	-9.97314
59	-9.97322
市長	-9.97472
一人	-9.97495
▁明治	-9.97511
実行	-9.97522
医師	-9.97536
いち	-9.97542
ke	-9.97574
破壊	-9.97574
過去	-9.97666
実現	-9.97687
阿	-9.97694
オール	-9.9772
英国	-9.97754
民間	-9.97884
集合	-9.97903
散	-9.97917
考え	-9.97924
祖	-9.98
多く	-9.98028
扱い	-9.98033
環	-9.98047
認定	-9.98107
▁1997	-9.98124
スペシャル	-9.98133
腕	-9.98157
▁k	-9.98169
要求	-9.9823
an	-9.98251
思想	-9.9828
更に	-9.9834
資格	-9.9838
ちょう	-9.98395
億円	-9.9842
作曲家	-9.98438
ヒット	-9.98475
さまざまな	-9.98546
フォー	-9.98552
sp	-9.98557
ベース	-9.98561
貿易	-9.98611
賀	-9.98632
ポリ	-9.98647
トロ	-9.9868
ミス	-9.98776
1980	-9.98847
供給	-9.98863
支持	-9.98868
泰	-9.98904
富士	-9.98905
一郎	-9.98908
丘	-9.98968
歩	-9.98984
奈	-9.98999
の下	-9.99001
流れ	-9.9903
幕府	-9.99084
本の	-9.99134
恵	-9.99175
階級	-9.99211
治療	-9.99223
できた	-9.99224
健康	-9.99228
▁全	-9.99234
するという	-9.9928
名を	-9.99358
▁1996	-9.99388
田中	-9.99389
腹	-9.99417
を用いた	-9.99423
formula	-9.99453
ぼ	-9.99455
東北	-9.99476
ka	-9.99488
の際に	-9.99518
ba	-9.99573
mi	-9.99577
調整	-9.99596
地点	-9.99627
ミニ	-9.99683
クリ	-9.99687
なども	-9.99719
、2015	-9.99754
川の	-9.99763
裁判	-9.99812
ドア	-9.99859
▁g	-9.99884
延	-9.99903
沖縄	-9.99918
取引	-10.0002
児	-10.0002
プリ	-10.0005
化した	-10.0005
グリーン	-10.0006
近代	-10.0012
処分	-10.0016
参戦	-10.0024
レーベル	-10.0028
衛星	-10.0028
bs	-10.0029
レット	-10.0031
エア	-10.0033
応	-10.0042
廃	-10.0046
ウル	-10.0046
証	-10.0058
千葉	-10.0058
式の	-10.0065
後も	-10.0066
導	-10.0067
とも呼ばれる	-10.0077
日間	-10.0078
と呼ばれ	-10.0078
全日本	-10.0079
、2000	-10.0084
情	-10.0089
価格	-10.0091
岸	-10.0092
年以降	-10.0101
関係者	-10.0118
券	-10.0123
街道	-10.0125
からも	-10.0125
改良	-10.0127
児童	-10.0127
思い	-10.013
大学の	-10.0133
アウト	-10.0137
であること	-10.014
信仰	-10.0146
澤	-10.0146
に登場する	-10.0148
だろう	-10.0151
il	-10.0154
掲載	-10.0155
惑星	-10.0155
アイルランド	-10.0159
の作品	-10.0159
バラ	-10.0159
本作	-10.0161
吉田	-10.0166
長期	-10.0166
に入った	-10.0166
大規模な	-10.0167
埼玉県	-10.0175
マリ	-10.0179
境	-10.0183
始めた	-10.0184
福岡	-10.0185
鎮	-10.0185
床	-10.0186
150	-10.019
son	-10.019
息子	-10.0191
イオン	-10.0193
〈	-10.0197
〉	-10.0198
中村	-10.0201
休	-10.0203
ファイル	-10.0208
雅	-10.0209
太陽	-10.0211
細	-10.0211
しゃ	-10.0218
被	-10.0218
化された	-10.0219
事態	-10.0222
国王	-10.0223
件	-10.0224
特定の	-10.0228
恋	-10.0228
医学	-10.0233
に就任	-10.0234
チャンネル	-10.0244
前後	-10.0245
食品	-10.0246
戦後	-10.0251
ハル	-10.0259
筆	-10.0263
輸入	-10.0268
上げ	-10.0277
通常の	-10.0277
段階	-10.0287
ゴー	-10.0288
800	-10.0292
▁p	-10.0302
600	-10.0302
区域	-10.0309
▁1995	-10.0309
アリ	-10.0313
失	-10.0331
合い	-10.0335
継続	-10.034
ケー	-10.034
を使って	-10.0342
始め	-10.0343
養	-10.0344
av	-10.0348
スウェーデン	-10.0352
羅	-10.0357
売	-10.0357
-4	-10.036
複数	-10.0364
指名	-10.0366
ップ	-10.0368
長崎	-10.0373
魔	-10.0385
ピン	-10.0387
にわたって	-10.0387
大阪府	-10.0392
ri	-10.0394
ガル	-10.0395
2019	-10.0398
側に	-10.0399
に参加	-10.04
それが	-10.0401
ことにより	-10.0401
住	-10.0402
組合	-10.0402
タレント	-10.0403
なし	-10.0417
嘉	-10.0419
運	-10.0421
主張	-10.0425
グランプリ	-10.0433
広告	-10.0434
-6	-10.0436
ッチ	-10.045
51	-10.0451
兵器	-10.0453
千葉県	-10.0456
これが	-10.0459
上位	-10.0462
解決	-10.0464
つき	-10.0465
ナイト	-10.0465
敬	-10.0466
ときに	-10.0467
イメージ	-10.0468
雑	-10.0468
理解	-10.0468
拠点	-10.0469
プレー	-10.047
小型	-10.047
家庭	-10.047
▁d	-10.0472
河川	-10.0474
、2016	-10.0476
クー	-10.0478
名誉	-10.0483
古代	-10.0484
シル	-10.0484
許	-10.0485
ます	-10.0488
プロデューサー	-10.0488
でき	-10.0497
継承	-10.0499
途中	-10.0501
古い	-10.0502
失敗	-10.0507
合計	-10.0511
脚本	-10.0511
の場合は	-10.0515
の各	-10.0517
正式に	-10.0518
画面	-10.0518
ランキング	-10.052
塚	-10.0522
受け	-10.0523
中部	-10.0525
com	-10.0527
博士	-10.0531
年齢	-10.0531
にもかかわらず	-10.0533
?	-10.0534
脱	-10.0543
宣言	-10.0543
ry	-10.0545
ものであり	-10.0547
マシン	-10.0552
ルイ	-10.0553
と述べている	-10.0556
▁1970	-10.0557
諸国	-10.0562
を表す	-10.0565
業界	-10.0569
結成	-10.0569
一方で	-10.057
上昇	-10.0571
世紀の	-10.0572
栽培	-10.0572
▁当時	-10.0575
が行われる	-10.0576
作り	-10.0577
れる	-10.0578
に至る	-10.058
リック	-10.0586
自分	-10.0588
追加	-10.059
デイ	-10.0592
入れ	-10.0607
参	-10.0608
杉	-10.0613
ング	-10.0618
に基づく	-10.062
ワイ	-10.0622
撤退	-10.0622
飯	-10.0625
犯罪	-10.063
戦略	-10.0632
ra	-10.0632
多数	-10.0641
メジャー	-10.0642
ラス	-10.0645
ベー	-10.065
畑	-10.0656
阪神	-10.0658
長官	-10.0659
ポー	-10.066
ボル	-10.0663
める	-10.0663
競馬	-10.0664
のみで	-10.0665
静	-10.0667
固	-10.0668
貨物	-10.0671
弁護士	-10.0678
分割	-10.0683
場合には	-10.0685
▁一方で	-10.0686
準備	-10.0687
可	-10.069
青年	-10.069
後期	-10.0694
有名	-10.0694
鹿	-10.0698
空気	-10.0698
箱	-10.0701
を超える	-10.0701
]	-10.0701
準	-10.0708
哲学	-10.071
弱	-10.0712
52	-10.0712
レギュラー	-10.0722
近く	-10.0722
<	-10.0722
たちが	-10.0726
島の	-10.0727
53	-10.0727
連隊	-10.0728
▁("	-10.0731
比較的	-10.0735
翌年	-10.0737
まる	-10.0738
セイ	-10.0738
認識	-10.074
特定	-10.0741
▁1994	-10.0745
規格	-10.0747
ドラ	-10.0749
地下鉄	-10.0749
読み	-10.0758
と考えられる	-10.0763
のちに	-10.0765
スペース	-10.077
たちの	-10.077
主要	-10.0772
ニン	-10.0774
カイ	-10.0778
のない	-10.0778
得	-10.0779
1999	-10.078
までに	-10.0782
エピソード	-10.0785
の息子	-10.0788
集落	-10.0789
菌	-10.079
判定	-10.0795
送	-10.0796
ユダヤ人	-10.0798
ki	-10.0803
ずつ	-10.0804
各種	-10.0805
佐藤	-10.0805
滝	-10.0809
離	-10.0809
fm	-10.0812
起	-10.0813
向き	-10.0814
当時は	-10.0817
63	-10.082
地域の	-10.0821
▁/	-10.083
折	-10.0832
取得	-10.0833
一番	-10.0835
姉	-10.0835
やすい	-10.0835
85	-10.0837
ていった	-10.0848
も多い	-10.0849
リュ	-10.0859
ロケット	-10.0862
えき	-10.0865
ation	-10.0867
決勝	-10.0868
1970	-10.0869
自らの	-10.087
向けの	-10.0873
記載	-10.0875
東海	-10.0875
ノン	-10.0877
vi	-10.0877
一時	-10.0878
成績	-10.0883
共通	-10.0885
終	-10.0885
呉	-10.0891
スタン	-10.0896
移転	-10.09
を得る	-10.0907
仏教	-10.0907
スタジアム	-10.0907
納	-10.0908
まり	-10.091
ビジネス	-10.091
フィン	-10.0911
、2004	-10.0915
あい	-10.0921
)12	-10.0927
市出身	-10.0937
した後	-10.0939
美術館	-10.0941
ジャック	-10.0943
復活	-10.0945
構想	-10.0947
交差点	-10.0951
梅	-10.0957
キュ	-10.0957
兵士	-10.096
山田	-10.0961
共	-10.0961
man	-10.0961
裁判所	-10.0961
職員	-10.0963
打率	-10.0966
ds	-10.0969
学院	-10.0976
逃げ	-10.0976
亜	-10.0978
票	-10.0979
の一人	-10.0985
皮	-10.0986
統治	-10.0987
colspan	-10.0994
ほどの	-10.0996
すでに	-10.1001
スクール	-10.1009
読	-10.1009
およそ	-10.101
しく	-10.1011
ケイ	-10.1018
略	-10.1024
.3	-10.1025
現在も	-10.1026
アイドル	-10.1029
が必要	-10.1031
箇所	-10.1033
帰	-10.1038
けい	-10.1039
退	-10.1045
陳	-10.1049
ものが	-10.1051
寿	-10.1054
っており	-10.1055
一般的な	-10.1063
▁t	-10.1063
標高	-10.1064
▁ア	-10.1069
尊	-10.1072
試	-10.1076
採用	-10.1077
背	-10.1077
遺	-10.1082
77	-10.1086
与	-10.1092
をしている	-10.1095
についての	-10.11
▁re	-10.1104
ぬ	-10.1105
オペラ	-10.1106
海岸	-10.1111
88	-10.1111
é	-10.1112
ようになり	-10.1117
少	-10.112
年現在	-10.112
トルコ	-10.1121
86	-10.1125
成長	-10.1128
すぐに	-10.1132
ヤン	-10.1132
チャー	-10.1133
らない	-10.1139
その他の	-10.114
ce	-10.1141
奏	-10.1142
宣	-10.1148
▁このような	-10.115
暦	-10.1153
仙台	-10.1156
ユーザー	-10.1157
半島	-10.1161
侵攻	-10.1165
発見	-10.1167
自治	-10.117
per	-10.1176
舞	-10.1177
bo	-10.1179
監督の	-10.1186
昭	-10.1187
、2017	-10.119
状の	-10.1195
ip	-10.1197
していく	-10.1202
ジョー	-10.1202
▁その他	-10.1205
きょう	-10.1206
評	-10.1207
解釈	-10.121
再生	-10.1216
傾向	-10.1217
棟	-10.1219
ワシントン	-10.1221
規模	-10.1223
チームの	-10.1227
マイル	-10.1227
ビット	-10.1227
ad	-10.123
を引き	-10.1231
刑	-10.1232
ヴェル	-10.1236
爆発	-10.1238
短	-10.1238
柄	-10.1239
大和	-10.1243
はなく	-10.1244
▁主に	-10.1247
庭	-10.1249
ーズ	-10.1251
伊勢	-10.1251
パラ	-10.1251
ヴォ	-10.1257
従来	-10.1259
ナイ	-10.126
生き	-10.1265
ダル	-10.1269
ペル	-10.1269
回復	-10.1271
様式	-10.1271
武装	-10.1273
アナウンサー	-10.1274
糸	-10.1278
臣	-10.1278
賢	-10.1281
徐々に	-10.1283
ステ	-10.1286
形状	-10.1289
をした	-10.1295
裕	-10.1298
のこと	-10.1301
教師	-10.1306
クレ	-10.1309
州の	-10.131
自身が	-10.1311
ール	-10.1312
されていたが	-10.1315
発射	-10.1316
学科	-10.1317
邦	-10.1319
安定	-10.132
66	-10.1323
強化	-10.1323
を通して	-10.1325
配	-10.1328
信号	-10.1329
▁各	-10.133
世代	-10.1339
後半	-10.134
エジプト	-10.1342
させて	-10.1345
演劇	-10.135
荘	-10.1352
走行	-10.1352
意見	-10.1353
程	-10.1354
ミル	-10.1355
置	-10.1355
▁w	-10.1357
モスクワ	-10.136
▁東京	-10.1364
寄	-10.1366
テーマ	-10.1366
月号	-10.1368
78	-10.1369
検討	-10.1371
財政	-10.1372
振	-10.1383
替え	-10.1383
の間で	-10.1386
改	-10.1386
冷	-10.139
典	-10.1391
なった	-10.1393
できなかった	-10.1394
稲	-10.1409
▁1992	-10.1412
パル	-10.1415
年からは	-10.1416
si	-10.1426
62	-10.1431
の一つである	-10.1431
初期の	-10.1437
僧	-10.1439
刊行	-10.1439
ポート	-10.1439
か月	-10.144
特殊	-10.1444
首都	-10.1444
なお	-10.1444
に参加した	-10.1449
チャンピオン	-10.1452
例えば	-10.1462
グル	-10.1463
残り	-10.1465
原因	-10.1466
創設	-10.1467
冊	-10.1469
有名な	-10.1476
ハンガリー	-10.1478
山本	-10.148
接	-10.1483
権利	-10.1485
輸出	-10.1485
陰	-10.1487
重要	-10.1494
銅	-10.1495
に関して	-10.1499
そこ	-10.1506
ソング	-10.151
山口	-10.1514
コール	-10.1515
練習	-10.1515
卒業後	-10.1515
続く	-10.1516
発表された	-10.152
▁1993	-10.1521
衝突	-10.1527
業者	-10.1534
重量	-10.1536
クト	-10.1541
金融	-10.1544
執筆	-10.1545
講師	-10.1547
作用	-10.155
略称	-10.1558
改善	-10.1558
一度	-10.1562
次元	-10.1575
機の	-10.1576
ine	-10.1577
たため	-10.1578
ッカー	-10.1582
ly	-10.1583
飛	-10.1586
の世界	-10.16
帰国	-10.1603
ph	-10.1603
降	-10.1603
快	-10.1604
あと	-10.1605
潜水艦	-10.1607
行われ	-10.1611
▁かつては	-10.1617
、1990	-10.1625
コミック	-10.1627
昇格	-10.1628
、2018	-10.1632
彼が	-10.1633
の下で	-10.1635
参照	-10.164
の使用	-10.1642
争い	-10.1644
▁for	-10.1647
株	-10.1649
▁1991	-10.165
露	-10.1652
則	-10.1655
)10	-10.1655
混乱	-10.1659
炎	-10.166
影	-10.166
存在する	-10.1662
と呼ばれた	-10.1666
解放	-10.1667
投資	-10.1671
リンク	-10.1671
ゲル	-10.1672
すべき	-10.1676
派遣	-10.1677
mp	-10.168
芸	-10.1682
統計	-10.1684
を描いた	-10.1687
を記録した	-10.1688
ロバート	-10.169
知識	-10.1691
デュ	-10.1692
輝	-10.1692
テレ	-10.1693
68	-10.1694
丁	-10.1699
戦では	-10.17
と同じく	-10.1703
ミサイル	-10.1703
方針	-10.1706
最終的に	-10.1708
61	-10.1718
するための	-10.172
ブレ	-10.1726
ヶ	-10.1728
仮	-10.1729
札幌	-10.1729
パワー	-10.173
中学	-10.1747
フー	-10.1747
を始めた	-10.1753
の手	-10.1754
アカデミー	-10.1758
荒	-10.176
特急	-10.1763
が高い	-10.1763
入学	-10.1769
チョ	-10.177
ブレーキ	-10.1772
トム	-10.1788
アラ	-10.1789
インディアン	-10.1795
藤原	-10.1796
外国人	-10.1801
事情	-10.1802
それは	-10.1809
髪	-10.181
に位置し	-10.181
キャリア	-10.1818
;	-10.1819
マリア	-10.182
pe	-10.182
ベルト	-10.182
98	-10.1826
らの	-10.1827
規則	-10.1828
協定	-10.1833
に変更	-10.1833
それまで	-10.1834
大学院	-10.1834
軍団	-10.1834
ブー	-10.1835
祖父	-10.1835
同様	-10.1836
文庫	-10.184
受賞	-10.1854
防御率	-10.1859
戦線	-10.186
社の	-10.1865
月場所	-10.1872
長さ	-10.1874
フィルム	-10.1876
指導者	-10.1877
駆逐艦	-10.1878
すなわち	-10.1879
を求める	-10.1882
なければならない	-10.1882
不明	-10.1885
獣	-10.1891
潮	-10.1892
ヴァル	-10.1892
思	-10.1892
向上	-10.1897
ッド	-10.1906
峰	-10.1909
理事	-10.1911
体験	-10.1912
全米	-10.1914
宇	-10.192
建造	-10.1925
サラ	-10.1927
身体	-10.1935
沖	-10.1936
5%	-10.1936
耳	-10.1938
1998	-10.1946
人に	-10.1948
予算	-10.195
加入	-10.1962
暗	-10.1964
以前の	-10.1964
研究者	-10.1969
動画	-10.1969
維持	-10.197
立て	-10.1972
再開	-10.1974
成立	-10.1974
を発表した	-10.1976
sf	-10.1978
修正	-10.1984
マク	-10.1987
であれば	-10.1988
患者	-10.1991
地元の	-10.1992
責任	-10.1992
回り	-10.1998
衣	-10.1999
功	-10.2001
中止	-10.2002
題	-10.2002
新宿	-10.2004
創	-10.2004
プロダクション	-10.2005
動作	-10.2009
守備	-10.2009
個の	-10.201
兵衛	-10.2014
許可	-10.2014
膜	-10.2016
高さ	-10.2018
死亡	-10.202
艇	-10.202
地帯	-10.2022
現在では	-10.2027
しながら	-10.2034
ヘンリー	-10.2039
アクション	-10.2041
称	-10.2042
虎	-10.2045
ex	-10.2053
歴代	-10.2057
ッシュ	-10.2058
投	-10.2058
解説	-10.2058
ロサンゼルス	-10.2062
厳	-10.2063
展	-10.2065
ウクライナ	-10.2066
ai	-10.2068
仙	-10.2069
ワイン	-10.2072
ck	-10.2073
多い	-10.2075
未来	-10.2076
鏡	-10.2076
ディア	-10.2084
▁1989	-10.2085
苦	-10.2085
ただし	-10.2085
▁しかしながら	-10.2086
範囲	-10.2088
au	-10.2088
so	-10.209
深い	-10.2096
用語	-10.2098
姉妹	-10.2099
ンズ	-10.21
日本では	-10.21
国境	-10.2102
人を	-10.2102
シャン	-10.2103
行われる	-10.2103
両親	-10.2105
つく	-10.2106
立場	-10.2108
毒	-10.211
に就任した	-10.211
ティング	-10.2112
べき	-10.2113
捜査	-10.2115
駅舎	-10.2116
問	-10.2116
ho	-10.2117
高橋	-10.2117
プロデュース	-10.2122
誕生	-10.2125
政治家	-10.2127
しい	-10.2131
イスラエル	-10.2133
子は	-10.2134
67	-10.2152
検	-10.2155
面積	-10.2162
を獲得した	-10.2163
営業所	-10.2163
ur	-10.2166
友人	-10.2168
ベルク	-10.2168
比較	-10.2173
ヌス	-10.2174
を行っていた	-10.2181
ケル	-10.2185
殺	-10.2186
戦闘機	-10.2187
山脈	-10.2187
▁こうした	-10.2187
万ドル	-10.2191
側面	-10.2197
るようになった	-10.2197
ものを	-10.2205
ドリ	-10.221
そこで	-10.2211
振り	-10.2213
ゴン	-10.2217
チームは	-10.2218
飛び	-10.2218
装甲	-10.2219
現場	-10.2223
描写	-10.223
ウィン	-10.2233
仲間	-10.2237
サイズ	-10.224
判断	-10.2243
☆	-10.2247
衆	-10.2249
灯	-10.2253
権力	-10.2266
フレ	-10.2266
結局	-10.2266
を発表	-10.2267
材料	-10.2268
を持っている	-10.2268
をもつ	-10.2271
年生	-10.2279
実際には	-10.2281
峠	-10.2282
ci	-10.2286
当初	-10.2286
スコットランド	-10.2287
un	-10.2289
晴	-10.229
ギリシャ	-10.2294
形の	-10.2298
落ち	-10.23
審査	-10.2303
▁新	-10.2303
ni	-10.2307
占領	-10.2307
-5	-10.2309
勤務	-10.231
王者	-10.231
することになった	-10.2311
マッチ	-10.2314
相互	-10.2314
費用	-10.2315
▁15	-10.2316
発言	-10.2321
▁旧	-10.2328
スは	-10.233
藩主	-10.2332
司令官	-10.234
記憶	-10.2344
アニメーション	-10.2346
はほとんど	-10.2346
こそ	-10.2355
液	-10.2356
年代の	-10.2357
整	-10.2357
期の	-10.2358
人で	-10.2362
画像	-10.2363
高度	-10.2369
76	-10.2369
兵庫県	-10.2371
プル	-10.2373
おう	-10.2379
トーク	-10.2389
を得て	-10.2391
果	-10.2391
再建	-10.2391
▁j	-10.2401
左右	-10.2402
カット	-10.2402
ウッド	-10.2403
95	-10.2405
ショ	-10.2406
清水	-10.2407
性の	-10.2409
、2003	-10.2411
間に	-10.2413
第二次世界大戦	-10.2414
ol	-10.2415
保有	-10.2422
のことである	-10.2423
トレ	-10.2429
ながらも	-10.243
芳	-10.243
工学	-10.2431
パイロット	-10.2433
中国の	-10.2435
ポルトガル	-10.2439
開発された	-10.2439
)11	-10.2442
にまで	-10.2443
有効	-10.2447
▁1960	-10.2454
長く	-10.2455
分布	-10.2458
刺	-10.246
儀	-10.2462
カリ	-10.2462
学習	-10.2466
わずか	-10.2467
禁	-10.2467
が行われている	-10.2471
クロス	-10.2471
リリースされた	-10.2473
危険	-10.2476
フィリピン	-10.2478
その他	-10.2478
んでいる	-10.2479
シス	-10.2487
を中心とした	-10.2487
寛	-10.2499
当たり	-10.2504
以降の	-10.2504
サブ	-10.2505
""	-10.2508
陵	-10.2509
することを	-10.2509
が可能	-10.2511
)7	-10.2512
温度	-10.2514
は主に	-10.2516
ヘン	-10.2516
主体	-10.2516
らは	-10.2518
ネル	-10.252
劇団	-10.2521
敏	-10.2523
1997	-10.2523
静岡県	-10.2524
数字	-10.2524
も多く	-10.2526
状態で	-10.2529
扉	-10.2535
di	-10.2537
人々	-10.2541
夫人	-10.2541
短い	-10.2542
通過	-10.2555
おか	-10.2559
よい	-10.256
込んで	-10.2561
写	-10.2563
軒	-10.2563
遠征	-10.2567
このような	-10.2567
ステークス	-10.257
衛	-10.2577
事業者	-10.2581
全く	-10.2582
に相当する	-10.2584
ec	-10.2588
先発	-10.2592
姿勢	-10.2593
完全に	-10.2593
文献	-10.2594
オーバー	-10.2594
メール	-10.2595
に当たる	-10.2598
を目指す	-10.2599
進化	-10.261
mc	-10.2612
ベトナム	-10.2613
オフ	-10.2613
▁2020	-10.2616
1996	-10.2618
▁i	-10.2619
69	-10.2619
勇	-10.2621
種類の	-10.2623
つつ	-10.2623
なければ	-10.2626
政府は	-10.2628
彼らの	-10.2628
シーズンは	-10.263
施行	-10.2631
注意	-10.2633
、1980	-10.2635
北京	-10.2636
創立	-10.2638
されない	-10.2639
が見られる	-10.264
と思われる	-10.2642
に生まれる	-10.2644
ウェ	-10.265
刑事	-10.2651
リード	-10.2657
キャラ	-10.266
当選	-10.266
ラブ	-10.2666
楽器	-10.2667
を使用する	-10.2668
am	-10.2674
フィー	-10.2683
単独	-10.2684
ブロ	-10.2688
小さい	-10.2692
東日本	-10.2695
ネー	-10.2697
石油	-10.27
松本	-10.2701
再度	-10.2703
激しい	-10.2703
空軍	-10.2707
てしまった	-10.2708
の意味	-10.2709
場合がある	-10.2716
照	-10.2718
アクセス	-10.2719
することが	-10.2722
のもと	-10.2723
ダウン	-10.2724
と同	-10.2724
モル	-10.2726
巣	-10.2729
ts	-10.273
▁この時	-10.273
の建設	-10.2735
単に	-10.2735
虫	-10.2737
駅前	-10.2739
フラ	-10.275
東西	-10.275
皇	-10.275
保険	-10.2752
資源	-10.2756
ろう	-10.2757
市にある	-10.2758
に移籍	-10.2761
リズム	-10.2763
交代	-10.2766
価値	-10.2768
改修	-10.2769
対戦	-10.2772
人民	-10.2773
代わりに	-10.2774
背景	-10.2777
ジャンル	-10.278
の名称	-10.2781
神話	-10.2781
日現在	-10.2783
ja	-10.2787
を用いる	-10.2787
たか	-10.2788
フェル	-10.2789
先に	-10.2789
ザン	-10.2792
妹	-10.2792
したこと	-10.2801
.1	-10.2804
アート	-10.2807
▁以後	-10.2807
大きい	-10.2808
_1	-10.2816
87	-10.2818
全員	-10.2819
廃止された	-10.2823
遺伝子	-10.2829
機種	-10.283
を作る	-10.2835
しても	-10.2838
実際の	-10.2846
に向けて	-10.2848
試み	-10.2848
句	-10.2849
彼女	-10.285
ものと	-10.2851
ガラス	-10.2855
伊藤	-10.286
でもあった	-10.2869
絵画	-10.2877
麻	-10.288
上海	-10.2886
復興	-10.2886
至	-10.2888
79	-10.2892
案内	-10.2895
側は	-10.2899
op	-10.2902
:"	-10.2903
急行	-10.2906
をしていた	-10.291
ビッグ	-10.2911
可能性がある	-10.2911
戦隊	-10.2918
遅れ	-10.2918
作詞	-10.292
復	-10.2922
全長	-10.2923
神奈川県	-10.2925
シカゴ	-10.2929
アク	-10.293
沈	-10.2934
彼女の	-10.294
1995	-10.2946
次第に	-10.2947
ヴィン	-10.2953
玄	-10.2956
小林	-10.2961
印刷	-10.2962
チャン	-10.2966
と同様	-10.2969
ための	-10.2969
されること	-10.297
の他	-10.2971
内部	-10.2975
分け	-10.2978
崩壊	-10.2981
同一	-10.2986
イラスト	-10.2987
ディング	-10.2987
▁当時の	-10.2988
気候	-10.2991
ント	-10.3004
算	-10.3004
ジャズ	-10.3007
深夜	-10.3009
るが	-10.301
▁co	-10.3012
▁1988	-10.3013
普及	-10.3013
作成	-10.3014
少し	-10.3015
負担	-10.3016
▁me	-10.3017
フジテレビ	-10.3018
ネイ	-10.3032
中間	-10.3035
継	-10.3037
を持った	-10.3041
脇	-10.3048
ir	-10.3049
デモ	-10.3059
しま	-10.3062
ab	-10.3063
)8	-10.3063
書籍	-10.3064
墓	-10.3065
行った	-10.3073
戻	-10.308
age	-10.3091
音声	-10.3092
1960	-10.3093
になっていた	-10.3097
コスト	-10.3097
入団	-10.3098
外国	-10.3103
流通	-10.3103
として知られる	-10.3104
提案	-10.3111
世界選手権	-10.3112
一覧	-10.3114
観客	-10.3115
最多	-10.3118
、2002	-10.3119
伯爵	-10.3122
縦	-10.3134
も存在する	-10.3137
抗	-10.3138
されなかった	-10.314
カバー	-10.3142
)9	-10.3143
力を	-10.3147
議長	-10.3148
さい	-10.315
高等	-10.3155
東映	-10.3158
ここ	-10.316
であったため	-10.3161
▁la	-10.3163
ミュージシャン	-10.3165
スイス	-10.3165
フランス語	-10.3166
駅から	-10.3166
顧問	-10.3167
中世	-10.3168
四国	-10.3168
帰還	-10.317
逆に	-10.3174
ばかり	-10.3174
証拠	-10.3175
あたり	-10.3175
敷	-10.3177
ならば	-10.3181
制定	-10.3181
由	-10.3185
ウィーン	-10.3189
ても	-10.3189
ベルギー	-10.3193
収入	-10.3194
良い	-10.3198
ヒト	-10.3201
加工	-10.3201
人と	-10.3203
外交	-10.321
病気	-10.3211
トゥー	-10.3213
!!	-10.3219
▁身長	-10.3222
東洋	-10.3224
柔道	-10.3225
浮	-10.3227
がわ	-10.3228
加盟	-10.3228
卒	-10.323
注	-10.323
加藤	-10.3231
岳	-10.3232
イラン	-10.3233
合同	-10.3237
沿岸	-10.3238
サム	-10.3247
浪	-10.325
給	-10.3254
それら	-10.3262
無料	-10.3262
アメリカ軍	-10.3264
レコーディング	-10.3265
胸	-10.3267
打点	-10.3269
海上	-10.3274
紅	-10.3274
賞を受賞	-10.3274
番目の	-10.3275
福岡県	-10.3277
彼ら	-10.3278
当駅	-10.3278
su	-10.3281
覚	-10.3283
地名	-10.3289
録	-10.3294
ということ	-10.3297
負け	-10.3298
投げ	-10.3299
レル	-10.33
偽	-10.3301
岐阜県	-10.3302
隠	-10.3303
的には	-10.3304
現役	-10.3311
大手	-10.3314
の一種	-10.3319
▁1987	-10.3323
臨時	-10.3329
こともあった	-10.3334
父の	-10.3339
開通	-10.3339
との間に	-10.334
られていた	-10.3344
広場	-10.3347
肩	-10.3349
かな	-10.335
ヘッド	-10.3351
故障	-10.3353
上映	-10.3362
巡	-10.3363
部品	-10.3368
原則	-10.3376
ナル	-10.3376
を開始	-10.3377
時点	-10.3381
デンマーク	-10.3384
現実	-10.3386
の父	-10.339
登板	-10.3391
司法	-10.3391
福島	-10.3392
ドライバー	-10.3393
本名	-10.3401
手段	-10.3402
個体	-10.3407
違い	-10.3408
といわれる	-10.3411
感染	-10.3413
分裂	-10.3414
旅客	-10.3415
テー	-10.3416
男女	-10.3416
大学で	-10.3417
形成	-10.3422
人生	-10.3423
酸化	-10.3424
母親	-10.3425
ロボット	-10.3429
リュー	-10.343
乗り	-10.3435
移民	-10.3436
新規	-10.344
こととなった	-10.3441
かなり	-10.3443
ぶり	-10.3443
im	-10.3444
痛	-10.3446
習	-10.3446
年頃	-10.3448
してしまう	-10.345
を担当した	-10.3451
97	-10.3452
um	-10.3454
公認	-10.3463
順位	-10.3464
芝	-10.3467
180	-10.3468
オリ	-10.3471
駒	-10.3477
が異なる	-10.3477
する事	-10.3487
措置	-10.3493
労	-10.3497
チャールズ	-10.3508
翻訳	-10.3508
スコ	-10.3512
倒	-10.3512
幹部	-10.3513
5000	-10.3514
hi	-10.3516
ラグビー	-10.352
テロ	-10.352
ツァ	-10.352
二人	-10.3523
-7	-10.3527
必要がある	-10.3529
定期	-10.3532
体重	-10.3533
寺院	-10.3536
斉	-10.3536
著	-10.3539
120	-10.3541
低い	-10.3542
修道院	-10.3543
線路	-10.3553
変換	-10.3555
160	-10.3557
かれ	-10.356
アイテム	-10.3561
確立	-10.3564
妙	-10.3567
ジェームズ	-10.3568
▁r	-10.3575
症状	-10.3577
wa	-10.3582
当て	-10.3583
概念	-10.3584
聴	-10.3587
モンゴル	-10.3587
行う	-10.3588
イヤー	-10.3588
梁	-10.3588
▁1986	-10.3589
1994	-10.359
であろう	-10.3591
取締役	-10.3595
▁v	-10.3599
新潟	-10.3601
のに対し	-10.3602
測定	-10.3604
台車	-10.3606
離脱	-10.361
活	-10.3611
▁be	-10.3612
牧	-10.3619
北朝鮮	-10.362
負傷	-10.362
頃から	-10.3621
▁これら	-10.3622
カトリック	-10.3625
一つ	-10.3625
体系	-10.3631
に基づき	-10.3633
1992	-10.3634
義務	-10.3639
又は	-10.3642
スカ	-10.3644
表面	-10.3646
屋根	-10.3649
かけ	-10.3654
舎	-10.3654
、1970	-10.3655
池田	-10.3656
政治的	-10.3657
活躍	-10.3657
之助	-10.366
振興	-10.3663
常に	-10.3668
推定	-10.3674
程度の	-10.3674
1993	-10.3677
災害	-10.3678
ホワイト	-10.3683
マイケル	-10.3686
ガイ	-10.3687
スポンサー	-10.3687
できず	-10.3689
96	-10.3693
須	-10.37
弥	-10.3701
ウイルス	-10.3704
作品は	-10.3705
高く	-10.3707
、2001	-10.3713
西日本	-10.3714
提出	-10.3717
の際	-10.3718
を果たす	-10.3719
誠	-10.3722
に加えて	-10.3724
緊急	-10.3724
アメリカン	-10.3724
ストリート	-10.3726
卿	-10.3726
全体の	-10.3731
、2019	-10.3733
ap	-10.3733
斎	-10.3734
岡山	-10.3734
ブラン	-10.3742
一連の	-10.3746
歌詞	-10.3748
ボス	-10.3754
没	-10.3756
の多くは	-10.3758
低下	-10.3762
項目	-10.3762
転換	-10.3768
-8	-10.3769
▁ここで	-10.3775
さえ	-10.3775
ロール	-10.3777
)5	-10.3777
寄り	-10.3779
ひろ	-10.3784
合意	-10.3784
強制	-10.3785
活用	-10.3786
下の	-10.3786
作品の	-10.3788
に終わった	-10.3789
選抜	-10.3793
籍	-10.3794
ないし	-10.3794
ネタ	-10.3796
執行	-10.3802
va	-10.3802
軍人	-10.3803
記号	-10.3803
絶対	-10.3803
に伴う	-10.3809
74	-10.3811
_	-10.3813
C	-10.3815
働き	-10.3815
憲	-10.3818
していった	-10.3819
中山	-10.3821
伸び	-10.3825
買収	-10.3827
区分	-10.3828
豪	-10.3833
われ	-10.3833
共産党	-10.3833
ve	-10.3836
合う	-10.3839
示	-10.3841
目の	-10.3843
侯	-10.3847
に基づいて	-10.385
紹介	-10.3851
で放送された	-10.3851
色の	-10.3852
秋田	-10.3853
▁1985	-10.3853
公共	-10.3855
iv	-10.3856
めた	-10.3857
▁x	-10.3857
流行	-10.3859
ニング	-10.386
試合で	-10.3862
io	-10.3863
人間の	-10.3864
桁	-10.3867
メー	-10.3868
尚	-10.3868
資産	-10.3869
事務	-10.3874
ぞ	-10.3875
屋敷	-10.3875
直後に	-10.3877
らず	-10.3877
命名	-10.3878
基礎	-10.388
興行	-10.3883
場面	-10.3884
両編成	-10.3885
桃	-10.3885
人類	-10.3885
の中でも	-10.3887
にいた	-10.3891
どの	-10.3891
をリリース	-10.3891
殺害	-10.3891
深く	-10.3895
を使った	-10.3896
せる	-10.3898
猫	-10.39
主催	-10.39
適用	-10.3902
成分	-10.3904
インチ	-10.3909
譲	-10.3909
伝承	-10.391
ウェル	-10.391
cs	-10.3912
のみならず	-10.3913
するもの	-10.3914
印象	-10.3916
ion	-10.3919
サウンド	-10.3923
焼き	-10.3925
談	-10.3925
は全て	-10.3931
上野	-10.3931
浅	-10.394
後述	-10.3951
追い	-10.3963
それに	-10.3966
やがて	-10.3967
株式	-10.3968
▁彼の	-10.3968
上陸	-10.3973
打撃	-10.3975
ライフ	-10.3975
巨人	-10.3977
貫	-10.3978
移籍	-10.3982
1991	-10.3983
一般に	-10.3985
そのもの	-10.3994
桂	-10.3994
から発売された	-10.3999
新人	-10.3999
軍が	-10.4
人である	-10.4001
あらゆる	-10.4002
料金	-10.4006
無線	-10.4007
iii	-10.4009
井上	-10.4012
ロウ	-10.4013
web	-10.402
ディスク	-10.4023
価	-10.4023
亀	-10.4023
子が	-10.4027
一族	-10.4031
補助	-10.4031
と言われている	-10.4032
解析	-10.4034
▁北	-10.4035
安打	-10.4035
世界の	-10.4036
社会主義	-10.4037
を見て	-10.404
閉鎖	-10.4044
それらの	-10.4049
性格	-10.405
ヴィー	-10.4051
狭	-10.4051
回の	-10.4051
予想	-10.4053
世が	-10.4054
生命	-10.4055
原題	-10.4057
集中	-10.4058
居住	-10.4061
監視	-10.4063
方言	-10.4065
襲撃	-10.4075
決	-10.4076
シリーズの	-10.4076
歩兵	-10.4078
証明	-10.4079
マッ	-10.4079
ru	-10.4079
北西	-10.4084
奴隷	-10.4084
話題	-10.4087
洞	-10.4087
利用者	-10.409
過程	-10.4092
があるが	-10.4096
同様の	-10.4097
ジム	-10.4098
負	-10.4098
72	-10.4098
渡辺	-10.4101
投入	-10.4102
王子	-10.4103
夕	-10.4104
同様に	-10.4108
分解	-10.4108
魂	-10.4114
塾	-10.4115
日本代表	-10.4117
一帯	-10.4118
がなく	-10.4121
近い	-10.4125
これに	-10.4126
蓮	-10.413
まち	-10.4131
89	-10.4132
周辺の	-10.4133
日に行われた	-10.4134
浩	-10.4137
はじめ	-10.4138
相当	-10.4139
南北	-10.4142
に応じて	-10.4143
奇	-10.4144
プロレス	-10.4145
当該	-10.4146
続けた	-10.4149
下り	-10.4153
ヤード	-10.4154
脱退	-10.4154
ローカル	-10.4156
po	-10.4158
自転車	-10.416
▁その後も	-10.4161
▁株式会社	-10.4162
を最後に	-10.4163
マリー	-10.4164
危機	-10.4166
)6	-10.4166
念	-10.4169
開幕	-10.4169
載	-10.417
nd	-10.4174
カム	-10.4175
演	-10.4176
ヤー	-10.4176
記者	-10.4176
系列	-10.4178
ヌー	-10.4178
フィンランド	-10.4181
任命	-10.4188
しき	-10.419
判	-10.419
数が	-10.419
ラル	-10.4191
市街地	-10.4191
アム	-10.4192
との関係	-10.4192
ました	-10.4192
ソウル	-10.4194
火災	-10.4195
区別	-10.4195
免許	-10.4197
昇	-10.4198
逮捕	-10.42
の戦いで	-10.42
▁東	-10.4201
洲	-10.4203
進行	-10.4204
茨城県	-10.4208
700	-10.4209
援助	-10.4212
ることができる	-10.4214
支部	-10.4217
かり	-10.4218
地方の	-10.4219
最初に	-10.422
づ	-10.422
年代から	-10.422
▁このとき	-10.4221
jo	-10.4226
新幹線	-10.4227
エース	-10.4227
司令部	-10.4228
以前	-10.423
ストラ	-10.4232
1989	-10.4233
▁1984	-10.4239
実績	-10.424
彩	-10.4241
役割	-10.4244
アマチュア	-10.4247
郡の	-10.4248
数学	-10.4249
eu	-10.4249
net	-10.4251
に選ばれた	-10.4251
袋	-10.4252
時点で	-10.4252
を見せ	-10.4255
少なくとも	-10.4256
切れ	-10.4262
ッタ	-10.4265
穂	-10.4268
んでいた	-10.4268
くる	-10.4269
雇用	-10.4271
バトル	-10.4272
なん	-10.4272
用に	-10.428
南西	-10.4284
つけ	-10.4286
祐	-10.4288
臨	-10.429
益	-10.4294
犯	-10.4295
)、『	-10.4295
を使う	-10.4296
王朝	-10.4299
返	-10.4302
▁1945	-10.4303
観察	-10.4303
の中には	-10.4304
が始まった	-10.4307
ver	-10.4309
最優秀	-10.4311
▁u	-10.4312
砦	-10.4312
演技	-10.4319
修理	-10.432
リーグ戦	-10.4321
若い	-10.4323
毎日	-10.4324
敗北	-10.4325
判決	-10.4327
往復	-10.4331
委員長	-10.4331
用途	-10.4337
ドイツ語	-10.4338
歳の	-10.4339
掛け	-10.4339
事実上	-10.4339
寝	-10.4339
ビア	-10.434
ボーカル	-10.4343
社員	-10.4343
練	-10.4345
新潟県	-10.4345
一家	-10.4347
よし	-10.4352
の対象	-10.4352
捕虜	-10.4364
庫	-10.4366
鳴	-10.4367
と言われる	-10.4369
チュー	-10.4375
ロング	-10.4375
を持って	-10.4377
性質	-10.4378
ティス	-10.4379
と述べた	-10.4384
ほとんどの	-10.4386
カス	-10.4392
は非常に	-10.4392
▁l	-10.4393
銀河	-10.4396
テレビアニメ	-10.4398
少将	-10.44
ゲイ	-10.4403
独立した	-10.4407
エレ	-10.4407
優れた	-10.4408
カレッジ	-10.4409
部に	-10.4413
閉	-10.4413
暴	-10.4416
札	-10.4417
民主	-10.4418
大阪市	-10.4422
発足	-10.4423
いている	-10.4426
イタリアの	-10.443
減少	-10.4431
コレクション	-10.4432
ステーション	-10.4435
大佐	-10.4442
予備	-10.4443
議席	-10.4444
版の	-10.4445
希望	-10.4449
頭部	-10.445
北東	-10.4451
fe	-10.4452
シート	-10.4454
厚	-10.4462
▁ポジションは	-10.4463
ラウンド	-10.4465
笠	-10.447
世帯	-10.4471
もっとも	-10.4473
を与える	-10.4474
ブルク	-10.4474
最後に	-10.4478
の上	-10.4481
ニック	-10.4481
コンセプト	-10.4481
ジャケット	-10.4482
放送局	-10.4482
に合わせて	-10.4482
賞を受賞した	-10.4483
スピード	-10.4487
マスター	-10.4488
前述の	-10.4489
創業	-10.4492
と語っている	-10.4493
雷	-10.4493
本人	-10.4494
地に	-10.4495
れた	-10.4497
詞	-10.45
上下	-10.4501
に次ぐ	-10.4502
明らかに	-10.4505
財	-10.4506
溝	-10.4506
リチャード	-10.4507
編曲	-10.4507
3000	-10.4508
待	-10.4508
が開始された	-10.4509
学術	-10.451
さない	-10.4514
に出	-10.4516
主要な	-10.4518
の仕事	-10.452
ボディ	-10.4523
中華人民共和国	-10.4525
季	-10.4527
強く	-10.4528
伸	-10.4532
ジャンプ	-10.4532
に乗り	-10.4536
優先	-10.4538
採	-10.4544
歴	-10.4546
ブラウン	-10.4548
コス	-10.4549
グレ	-10.4549
女王	-10.455
パート	-10.455
フロント	-10.4552
ブック	-10.4553
ラウ	-10.4557
かどうか	-10.4558
250	-10.456
由来	-10.4565
サポート	-10.4565
うる	-10.4567
承認	-10.4568
棒	-10.4575
通行	-10.458
リーグの	-10.458
出された	-10.4581
引き続き	-10.4583
を始める	-10.4588
国会	-10.459
過去に	-10.4592
唯一	-10.4593
朱	-10.4595
熊	-10.4598
奈良	-10.4606
▁st	-10.4609
消防	-10.4609
ya	-10.4609
政府の	-10.4611
アルゼンチン	-10.4612
長野県	-10.4612
育成	-10.4616
石川	-10.4617
トーナメント	-10.4622
日本で	-10.4623
大使	-10.4626
坊	-10.4626
かつての	-10.4628
座席	-10.4632
双	-10.4634
見解	-10.4636
投稿	-10.4639
の高い	-10.464
▁1983	-10.4644
したという	-10.4645
軍隊	-10.4646
73	-10.4648
出来事	-10.4652
するまで	-10.4652
に変更された	-10.4654
西洋	-10.4655
もまた	-10.4655
誘導	-10.4655
現在でも	-10.4658
回目の	-10.4658
息	-10.4659
抜き	-10.466
プロ野球	-10.466
付属	-10.466
されると	-10.4661
に向かう	-10.4663
メッセージ	-10.4667
プラン	-10.4669
の方が	-10.467
一定の	-10.4671
にした	-10.4673
の記録	-10.4676
選出	-10.4678
を除き	-10.4683
となったが	-10.4686
国際空港	-10.4687
申請	-10.4687
ディズニー	-10.4689
主力	-10.469
県道	-10.4692
見る	-10.4693
キロ	-10.4695
宣伝	-10.4697
ローズ	-10.4698
平日	-10.4698
水素	-10.4699
いたが	-10.4699
自動車道	-10.47
170	-10.4706
菊	-10.4708
弟子	-10.4708
使われ	-10.471
言い	-10.4711
火山	-10.4715
パフォーマンス	-10.4725
ヴィル	-10.4725
詩人	-10.4726
売却	-10.4727
魔法	-10.4731
大隊	-10.4731
したのは	-10.4732
奉	-10.4735
守護	-10.474
全域	-10.4745
入力	-10.4748
再編	-10.4748
▁その後は	-10.4749
授業	-10.475
uefa	-10.475
使い	-10.4755
挙	-10.4756
ツー	-10.4757
連結	-10.4758
滑	-10.4758
滅	-10.4761
tt	-10.4763
を持っていた	-10.4763
ie	-10.4767
特性	-10.4768
警備	-10.4772
単行本	-10.4776
ノルウェー	-10.4776
経緯	-10.4778
消費	-10.4781
バッハ	-10.4781
要因	-10.4782
で最も	-10.4785
バーグ	-10.4786
ワー	-10.4786
著書	-10.4787
るなど	-10.4788
端末	-10.4793
下げ	-10.4796
ごく	-10.4797
コンビ	-10.4798
の死	-10.4799
弓	-10.48
、1999	-10.4806
球場	-10.4806
ハート	-10.4808
しているが	-10.4811
宏	-10.4811
森林	-10.4812
刊	-10.4816
帳	-10.4818
護衛	-10.4818
除	-10.4818
秦	-10.4819
オート	-10.482
彼女は	-10.4822
を描く	-10.4825
-9	-10.4825
経路	-10.4827
平野	-10.4831
好き	-10.4832
▁1950	-10.4832
グロ	-10.4833
質量	-10.4834
の意	-10.4835
ただ	-10.4837
周囲	-10.4839
に入社	-10.4842
払	-10.4845
der	-10.4847
1988	-10.4847
競馬場	-10.4848
自社	-10.4849
暗殺	-10.4851
年後の	-10.4852
の姿	-10.4854
レオ	-10.4854
嶋	-10.4855
を作り	-10.4855
しゅう	-10.4856
当局	-10.4856
の問題	-10.4857
84	-10.4859
に入	-10.4863
利益	-10.4863
僕	-10.4863
ゼロ	-10.4865
ユース	-10.4867
ian	-10.4867
▁ma	-10.4867
ウォー	-10.4867
を代表する	-10.4869
今日	-10.487
事例	-10.487
ビュー	-10.4875
私立	-10.4877
グランド	-10.4879
激	-10.488
茎	-10.4881
侍	-10.4882
有力	-10.4882
放送された	-10.4886
文明	-10.489
テニス	-10.4894
を使用した	-10.4897
キャンパス	-10.4898
川崎	-10.49
年の第	-10.4903
韓	-10.4904
粒子	-10.4907
陸上	-10.4908
キャスト	-10.4908
発明	-10.4912
ラント	-10.4913
離婚	-10.4914
の乱	-10.4915
ーナ	-10.4916
権限	-10.4918
ファッション	-10.4919
てん	-10.4921
譲渡	-10.4925
レール	-10.4928
機会	-10.493
舟	-10.493
コート	-10.4931
課程	-10.4933
三菱	-10.4943
右衛門	-10.4946
訴訟	-10.4948
父親	-10.4953
ているが	-10.4954
局長	-10.4954
始める	-10.4955
効率	-10.4955
駅間	-10.4955
コミュニティ	-10.496
クラシック	-10.4965
▁1982	-10.4968
を出した	-10.4974
は以下の通り	-10.4978
主導	-10.498
挑戦	-10.4981
▁〜	-10.4981
基盤	-10.4983
地形	-10.4984
資本	-10.4987
死亡した	-10.4991
るため	-10.4991
続	-10.4991
に向かって	-10.4993
ゴールド	-10.4993
に参加し	-10.4995
リスク	-10.4995
という言葉	-10.4996
邸	-10.5
メス	-10.5001
を獲得	-10.5005
ウン	-10.5008
本来	-10.5011
開業した	-10.5012
回戦	-10.5012
使われている	-10.5019
主な	-10.5019
は日本の	-10.5021
自民党	-10.5021
日発売	-10.5024
てい	-10.5027
適	-10.5028
を利用して	-10.503
極めて	-10.5031
薄	-10.5031
世紀に	-10.5031
使用する	-10.5032
chi	-10.5033
総督	-10.5033
作られた	-10.5036
▁これが	-10.5036
の死後	-10.5037
初め	-10.5038
ロイ	-10.5039
バリ	-10.504
隣	-10.5041
合わせ	-10.5044
航	-10.5046
消滅	-10.505
著作	-10.5051
言及	-10.5054
バイパス	-10.5055
月現在	-10.5058
損傷	-10.5063
リーダー	-10.5066
福島県	-10.5067
するも	-10.5068
福祉	-10.507
》	-10.507
内容は	-10.507
《	-10.5078
名義	-10.5079
現地	-10.508
モノ	-10.5081
糖	-10.5083
腰	-10.5083
連勝	-10.5085
号機	-10.5086
時代は	-10.5087
しりつ	-10.5092
かく	-10.5092
北米	-10.5098
漢字	-10.51
広島県	-10.5104
ガンダム	-10.5112
二つの	-10.5113
三重県	-10.5116
年以上	-10.5119
ード	-10.512
本体	-10.5121
線が	-10.5123
抗議	-10.5127
°	-10.5128
鼻	-10.5131
山の	-10.5132
▁14	-10.5134
じん	-10.5134
正式	-10.5141
ギー	-10.5142
ることになった	-10.5142
の違い	-10.5143
であっても	-10.5143
意図	-10.5143
なかったため	-10.5143
ーニ	-10.5146
時から	-10.5147
生涯	-10.5147
するようになった	-10.5148
京都府	-10.5148
ものもある	-10.515
同時	-10.515
古典	-10.515
の地位	-10.5154
シリア	-10.5157
エリ	-10.5157
商人	-10.5157
猛	-10.5158
菜	-10.5159
パターン	-10.5162
ボックス	-10.5165
尻	-10.5166
相撲	-10.5168
レーダー	-10.517
出発	-10.5176
五郎	-10.5177
オーディション	-10.5177
発売された	-10.5178
売り	-10.5182
本土	-10.5182
インターチェンジ	-10.5184
数多くの	-10.5188
そのような	-10.5188
操縦	-10.5188
らしい	-10.5192
▁ところが	-10.52
海洋	-10.52
戦艦	-10.5201
日付で	-10.5206
紛争	-10.5209
寒	-10.521
存続	-10.5211
審	-10.5212
外部	-10.5215
教員	-10.5216
スミス	-10.5223
大将	-10.5224
確定	-10.5224
windows	-10.5224
巨大な	-10.5224
原子	-10.5225
が高く	-10.5226
カリフォルニア州	-10.5229
ジェット	-10.5231
笑	-10.5236
種の	-10.5237
拒否	-10.5238
▁ただ	-10.524
辞	-10.5243
の上に	-10.5249
みな	-10.5253
理事長	-10.5259
南東	-10.526
▁小	-10.5261
地位	-10.5262
ヨー	-10.5263
の新	-10.5266
▁h	-10.5269
で初めて	-10.5269
が大きく	-10.5269
運航	-10.527
スキ	-10.5273
供	-10.5274
グループの	-10.5274
枚目のシングル	-10.5278
伝統	-10.5285
vo	-10.5287
発音	-10.5287
体の	-10.5287
1987	-10.5288
バーン	-10.5289
ロシアの	-10.529
▁20	-10.529
応用	-10.5295
如	-10.5295
そこに	-10.5295
支	-10.5296
大字	-10.5297
課題	-10.5297
▁ちなみに	-10.53
いくつか	-10.5301
ゼン	-10.5301
gt	-10.5303
と呼ばれている	-10.5303
事を	-10.5303
べく	-10.5305
ドラフト	-10.5308
があったが	-10.5309
家は	-10.5309
渋谷	-10.531
一致	-10.5311
自分が	-10.5311
ton	-10.5313
曹	-10.5317
ヤング	-10.5318
分岐	-10.5319
指示	-10.5319
熊本	-10.5323
栗	-10.5323
クリア	-10.5324
ッカ	-10.5325
織	-10.5325
の女性	-10.5329
を設立	-10.5329
組み	-10.5331
幼	-10.5332
が設置されている	-10.5338
地区の	-10.5341
ポスト	-10.5345
らと	-10.5346
、1998	-10.5348
をはじめとする	-10.535
済	-10.5351
▁1979	-10.5352
指揮官	-10.5352
所属の	-10.5355
ナンバー	-10.5359
ライセンス	-10.5359
不動産	-10.536
祭り	-10.536
の製造	-10.5362
先行	-10.5362
の妻	-10.5364
海峡	-10.5364
沙	-10.5365
の位置	-10.5365
ムー	-10.5367
ついに	-10.5368
の中では	-10.5369
に出演	-10.5372
しようと	-10.5373
前半	-10.5376
うえ	-10.5378
際には	-10.5378
上がり	-10.5378
パイ	-10.5379
開設	-10.5382
因	-10.5382
疾患	-10.5386
職業	-10.5388
ショップ	-10.5389
資	-10.5391
rs	-10.5393
オンライン	-10.5394
ul	-10.5396
手術	-10.54
でない	-10.54
訪問	-10.5402
スパイ	-10.5403
▁かつて	-10.5403
タンパク質	-10.5404
one	-10.5407
sh	-10.5415
一軍	-10.5416
車の	-10.5417
▁13	-10.5417
の他に	-10.5423
▁他の	-10.5428
過去の	-10.5429
主題	-10.543
フランク	-10.5431
航海	-10.5433
手紙	-10.5435
人工	-10.5438
ターミナル	-10.5442
ブーム	-10.5443
ここで	-10.5445
間で	-10.5446
レストラン	-10.5446
偏	-10.5447
mb	-10.5448
に出場	-10.545
向けに	-10.5452
ドール	-10.5453
郵便局	-10.5453
空襲	-10.5454
pp	-10.5455
天文	-10.5457
ソニー	-10.5458
時間帯	-10.5461
携帯電話	-10.5462
▁1981	-10.5466
時代には	-10.5469
はこれ	-10.5471
ピア	-10.5471
取材	-10.5472
の中から	-10.5473
ゲー	-10.5476
つまり	-10.5479
空母	-10.548
、1997	-10.5481
なので	-10.5482
本編	-10.5485
とは異なり	-10.549
ていなかった	-10.549
所有	-10.5496
フォーク	-10.5499
腸	-10.5502
協	-10.5505
ずに	-10.5506
が発表された	-10.5507
バート	-10.5507
に含まれる	-10.5508
は第	-10.551
フラン	-10.5514
大名	-10.5514
蘭	-10.5518
ku	-10.5521
の楽曲	-10.5521
コア	-10.5522
を失った	-10.5528
ルイス	-10.5528
高松	-10.5529
に所属していた	-10.553
ート	-10.553
八幡	-10.553
ag	-10.5531
紫	-10.5533
午後	-10.5533
鑑	-10.5536
の設計	-10.5539
剛	-10.5544
山地	-10.5545
1985	-10.5546
模様	-10.5547
たる	-10.5548
▁1972	-10.5548
一つの	-10.5548
要請	-10.5548
官僚	-10.5549
かず	-10.5553
、1996	-10.5554
前期	-10.5555
なくなる	-10.5557
教え	-10.5559
実装	-10.5561
dr	-10.5563
パートナー	-10.5563
史料	-10.5566
鹿児島	-10.5566
に従って	-10.5569
を認め	-10.5574
▁&	-10.5575
財産	-10.558
がその	-10.5581
やや	-10.5581
なくなり	-10.5583
氏は	-10.5585
ゆき	-10.5588
高級	-10.5591
闘	-10.5592
甲板	-10.5592
感情	-10.5593
部は	-10.5594
1986	-10.5597
旅団	-10.5598
銭	-10.5599
ヘイ	-10.56
こうした	-10.56
統	-10.5602
ment	-10.5603
鉄道の	-10.5603
、1960	-10.5605
るために	-10.5605
ミッション	-10.5609
ファースト	-10.561
、1995	-10.5612
クロー	-10.5614
出資	-10.5615
殺人	-10.5617
まつ	-10.5618
亡命	-10.562
を務めていた	-10.562
収容	-10.5621
賞受賞	-10.5623
bi	-10.5623
ウェスト	-10.5624
作品を	-10.5625
ディレクター	-10.5626
ber	-10.5626
わない	-10.5627
年ぶりに	-10.5629
整理	-10.5634
即位	-10.5634
▁西	-10.5635
セー	-10.5637
中期	-10.5639
鎌倉	-10.5641
一旦	-10.5642
正規	-10.5644
願	-10.5644
広い	-10.5645
メント	-10.5646
困難	-10.5647
篇	-10.5648
するよう	-10.5648
同社の	-10.5651
その後も	-10.5656
騎兵	-10.5658
回数	-10.5658
休止	-10.5658
リニューアル	-10.5663
を構成する	-10.5663
金沢	-10.5664
に戻り	-10.5667
した場合	-10.5669
、1994	-10.567
ではあるが	-10.5671
厳しい	-10.5671
ィ	-10.5673
伴	-10.5674
社会的	-10.5676
係	-10.5678
ものがある	-10.5679
ペア	-10.568
パッケージ	-10.568
達成	-10.5682
ダブル	-10.5683
きゅう	-10.5686
寮	-10.5687
にわたり	-10.569
対抗	-10.5691
希	-10.5691
抜け	-10.5692
相談	-10.5693
発電所	-10.5693
大賞	-10.5693
先の	-10.5695
じゅう	-10.5696
遺体	-10.5698
伝統的な	-10.57
パソコン	-10.5701
ッター	-10.5702
とある	-10.5702
攻略	-10.5704
皆	-10.5705
に戻った	-10.571
田村	-10.571
を除いて	-10.5712
ドライブ	-10.5712
人形	-10.5713
エンド	-10.5713
シナリオ	-10.5717
キャンプ	-10.5718
頃に	-10.5718
冒険	-10.5719
ける	-10.5727
北方	-10.5727
ズの	-10.5727
スー	-10.5728
しばらく	-10.573
封	-10.5732
道具	-10.5734
就	-10.5735
を取る	-10.5736
を示した	-10.5736
の関係	-10.5737
シンガポール	-10.574
襲	-10.5741
もり	-10.5742
怪我	-10.5742
古くから	-10.5743
粉	-10.5746
に至った	-10.5751
否定	-10.5753
▁紀元前	-10.5754
本作の	-10.5756
そこから	-10.5758
▁こうして	-10.5763
ボタン	-10.5763
校舎	-10.5764
敗戦	-10.5768
吾	-10.577
揚	-10.5771
の家	-10.5772
ころ	-10.5772
専門学校	-10.5776
連れ	-10.5783
出来る	-10.5785
リアン	-10.5785
小さく	-10.5786
孔	-10.5792
請求	-10.5795
時計	-10.5795
に比べて	-10.5796
ゆう	-10.5797
彼らは	-10.5798
若手	-10.5804
乗客	-10.5806
を元に	-10.5808
ピーター	-10.5808
作品である	-10.5811
これまで	-10.5814
素材	-10.5816
終了後	-10.5816
攻め	-10.5818
委託	-10.5821
ot	-10.5821
脱出	-10.5822
誤	-10.5822
に入団	-10.5822
時代から	-10.5824
コメント	-10.5827
解消	-10.5827
フォル	-10.583
られて	-10.583
ものだった	-10.5831
近くの	-10.5831
直線	-10.5832
に戻る	-10.5832
シェル	-10.5835
中には	-10.5836
が出	-10.5836
しょ	-10.5836
刻	-10.5837
日本軍	-10.5837
以前に	-10.5838
アド	-10.5838
、1992	-10.5839
塗装	-10.584
1945	-10.5844
沖縄県	-10.5846
領土	-10.5848
がん	-10.585
▁戦後	-10.5852
アプリケーション	-10.5855
ソビエト連邦	-10.5856
飼育	-10.5856
ボストン	-10.5857
律	-10.5857
すら	-10.5858
の前に	-10.586
デザイナー	-10.5861
朝の	-10.5866
晋	-10.5866
あき	-10.5868
させること	-10.5869
似	-10.587
▁n	-10.5871
各国	-10.5874
-10	-10.5875
詰め	-10.5875
鉱山	-10.5878
一定	-10.588
ゴルフ	-10.5881
1950	-10.5882
爆弾	-10.5882
農民	-10.5885
▁彼らは	-10.5886
初出場	-10.5889
受験	-10.589
体育	-10.5891
ers	-10.5893
夜間	-10.5895
ディン	-10.5897
約束	-10.5899
その後の	-10.5899
部族	-10.59
の声	-10.59
ブログ	-10.59
rt	-10.5904
がこの	-10.5904
山城	-10.5905
ポル	-10.5905
を迎えた	-10.5905
出走	-10.591
の変化	-10.5911
創作	-10.5911
ep	-10.5913
ベラ	-10.5915
–	-10.5916
然	-10.5917
によっては	-10.5917
押し	-10.5918
存	-10.592
贈	-10.592
競争	-10.5924
村の	-10.5924
ッティ	-10.5925
降伏	-10.5925
インタビュー	-10.5926
新田	-10.5926
読者	-10.5932
はなかった	-10.5933
などから	-10.5936
河内	-10.5936
公式戦	-10.5946
選挙区	-10.5946
半分	-10.5948
の生産	-10.5949
されてきた	-10.5951
射撃	-10.5955
art	-10.5955
の内容	-10.5957
作者	-10.5958
奉行	-10.5959
漁	-10.5959
分に	-10.596
年代には	-10.5961
オフィス	-10.5961
▁享年	-10.5961
違う	-10.5962
もあって	-10.5962
▁アメリカ	-10.5964
mon	-10.5965
ハイム	-10.597
の数	-10.597
▁1973	-10.5971
が多数	-10.5972
以外に	-10.5973
人口は	-10.5974
ty	-10.5975
[	-10.5979
確率	-10.5982
初回	-10.5983
暫定	-10.5983
乾	-10.5985
を担当	-10.5985
徒	-10.5988
we	-10.5991
目に	-10.5991
少ない	-10.5993
ティン	-10.5993
反乱	-10.5998
錦	-10.5999
のお	-10.6002
研	-10.6002
に沿って	-10.6003
早稲田大学	-10.6005
しゅ	-10.6005
ライバル	-10.6012
▁1975	-10.6013
特許	-10.6013
止め	-10.6016
したものである	-10.6016
の特徴	-10.6021
削減	-10.6022
繁	-10.6023
補給	-10.6024
の時代	-10.6025
▁19	-10.6026
▁1978	-10.6029
日記	-10.6029
プール	-10.6032
顕	-10.6035
、1993	-10.6037
▁主な	-10.6038
方向に	-10.6041
",	-10.6043
傘下	-10.6043
前作	-10.6045
▁日本の	-10.6045
天体	-10.6047
を与えた	-10.6049
の原因	-10.6052
大学教授	-10.6055
したものの	-10.6059
公式サイト	-10.6062
されず	-10.6062
船舶	-10.6062
早く	-10.6066
出版社	-10.6074
上演	-10.6075
ドーム	-10.6076
の一環として	-10.6077
都道府県	-10.6079
紋	-10.6082
欠	-10.6082
所在地	-10.6082
の音楽	-10.6084
司馬	-10.6085
中将	-10.6089
大会で	-10.6089
教室	-10.6093
白い	-10.6095
のみが	-10.6096
標	-10.61
▁それは	-10.6101
子ども	-10.6102
貢献	-10.6104
はすべて	-10.6104
恩	-10.6111
ノース	-10.6112
暴力	-10.6112
太田	-10.6114
入社	-10.6115
に対しては	-10.6115
日に発売された	-10.6115
繁殖	-10.6116
グレイ	-10.6117
▁中国	-10.612
軍を	-10.6121
回戦で	-10.6121
フリードリヒ	-10.6123
根拠	-10.6124
防止	-10.6125
年までに	-10.6125
ーク	-10.6126
ドラム	-10.6128
害	-10.6132
ボード	-10.6134
承	-10.6136
ようと	-10.6138
に存在する	-10.614
途中で	-10.6141
放映	-10.6142
発表した	-10.6143
後方	-10.6147
ボート	-10.6151
我	-10.6153
連覇	-10.6156
キュー	-10.6158
、1989	-10.6159
の影響で	-10.6161
を与え	-10.6163
包	-10.6163
接触	-10.6164
追放	-10.6167
鷹	-10.6167
風の	-10.6168
申	-10.6168
洗	-10.6169
されるようになった	-10.617
が登場する	-10.6173
マルチ	-10.6174
cy	-10.6174
ツール	-10.6177
癌	-10.6181
ft	-10.6182
群馬県	-10.6182
周波数	-10.6185
周年	-10.6185
が多かった	-10.6185
、1991	-10.6188
例外	-10.6188
▁ha	-10.619
で知られる	-10.619
微	-10.6194
の高さ	-10.6195
会社の	-10.62
モーター	-10.62
解除	-10.6201
テレビ番組	-10.6202
1984	-10.6203
植	-10.6204
自殺	-10.6204
の発展	-10.6205
ストーン	-10.6205
ナチス	-10.6208
プレス	-10.621
ごと	-10.6211
要塞	-10.6213
長年	-10.6213
地図	-10.6214
専用の	-10.6214
連携	-10.6216
呂	-10.6216
縮小	-10.6217
二重	-10.6218
若干	-10.6219
市町村	-10.6221
木村	-10.6222
堅	-10.6232
に指定されている	-10.6232
オープニング	-10.6235
岡田	-10.6236
避難	-10.6238
フライ	-10.6239
炭	-10.6239
マラ	-10.6241
担	-10.6242
欧米	-10.6243
がいた	-10.6246
1,000	-10.625
は日本	-10.6257
ことによって	-10.6258
ビス	-10.6258
象	-10.6259
評論家	-10.6266
降り	-10.6267
ゲート	-10.6267
メガ	-10.6272
エドワード	-10.6274
ミュージカル	-10.6275
ていて	-10.6276
乗車	-10.6276
宮殿	-10.6278
『』	-10.6281
張り	-10.6281
国籍	-10.6282
は当初	-10.6286
ハワイ	-10.6289
線と	-10.6293
寧	-10.6294
rd	-10.6295
もなく	-10.6298
丹	-10.6301
コムーネ	-10.6303
甘	-10.6304
奏者	-10.6307
宅	-10.6309
ゴールデン	-10.631
航路	-10.631
子会社	-10.6311
短縮	-10.6311
われた	-10.6311
起こ	-10.6312
タワー	-10.6313
鹿児島県	-10.6314
宮城県	-10.6314
に生まれた	-10.6315
"(	-10.6318
並	-10.6319
限り	-10.6319
▁1976	-10.6319
に貢献した	-10.6321
にあたり	-10.6323
チェン	-10.6327
チームが	-10.6329
恒	-10.6331
▁1971	-10.6331
強力な	-10.6334
に選出された	-10.6336
スカイ	-10.6336
ロイド	-10.634
することとなった	-10.6341
フェン	-10.6343
飾	-10.6346
ラリー	-10.6349
秘密	-10.6349
需要	-10.6351
ものとして	-10.6357
オーケストラ	-10.6357
定着	-10.6358
自身も	-10.6358
即	-10.636
数々の	-10.6361
▁al	-10.6363
配給	-10.6363
に加入	-10.6365
以外	-10.6365
ムス	-10.6366
昔	-10.6369
ダービー	-10.637
生成	-10.6371
の大きさ	-10.6372
プロセス	-10.6372
を含め	-10.6374
逆転	-10.6375
の販売	-10.6376
を行うこと	-10.6377
2020	-10.6377
信頼	-10.6385
英雄	-10.6385
wi	-10.6389
えた	-10.6391
原理	-10.6392
支店	-10.6392
sd	-10.6393
推薦	-10.6393
タイヤ	-10.6395
市内の	-10.6396
教皇	-10.6396
急速に	-10.6397
わけではない	-10.6398
執	-10.6399
亡くなった	-10.6401
位で	-10.6408
ガード	-10.6409
ニュージーランド	-10.6411
インドネシア	-10.6412
に取り	-10.6414
眠	-10.6415
突然	-10.6415
弟の	-10.6415
lu	-10.6416
リエ	-10.6418
1.5	-10.6419
依頼	-10.6419
類似	-10.6419
黄色	-10.6419
音源	-10.6425
▁sa	-10.6427
妃	-10.6427
者として	-10.6432
応援	-10.6432
処	-10.6434
収集	-10.6434
行列	-10.6435
ns	-10.6435
ant	-10.6439
製造された	-10.6443
拳	-10.6443
戦力	-10.6443
▁つまり	-10.6448
ソル	-10.6452
募集	-10.6452
ヒーロー	-10.6453
という意味	-10.6455
若者	-10.6457
に所属する	-10.6458
ーノ	-10.646
社名	-10.646
の小	-10.6463
活動を	-10.6465
おそらく	-10.6466
登場する	-10.6468
者である	-10.6469
増加	-10.6472
▁当初	-10.6472
回収	-10.6473
チャート	-10.6475
歳の時に	-10.6477
つか	-10.6479
酵素	-10.6481
起用	-10.6483
包囲	-10.6484
勤	-10.6484
を出す	-10.649
前年	-10.6491
装飾	-10.6495
化する	-10.6496
法の	-10.6498
食事	-10.6499
エフ	-10.6501
ビール	-10.6501
懐	-10.6504
迫	-10.6506
電波	-10.6506
吹	-10.6507
警	-10.6507
左衛門	-10.6516
騎手	-10.6517
ロイヤル	-10.6521
ジェイ	-10.6525
赤い	-10.6526
天皇の	-10.6534
放出	-10.6537
大橋	-10.6537
公表	-10.6537
この時	-10.6538
▁1974	-10.654
▁前作	-10.6543
すぐ	-10.6543
インター	-10.6544
?」	-10.6544
構築	-10.6546
を利用する	-10.6548
来日	-10.6549
日にかけて	-10.6549
駆動	-10.6551
解体	-10.6552
バスケットボール	-10.6552
大規模	-10.6553
助手	-10.6555
がそれぞれ	-10.6556
好きな	-10.6557
課長	-10.6558
一本	-10.6561
恋愛	-10.6561
部分は	-10.6562
に分類される	-10.6562
グラン	-10.6564
現代の	-10.6566
回路	-10.6568
発見された	-10.657
防御	-10.657
sl	-10.6574
秘	-10.6574
ゼル	-10.6579
自身は	-10.658
ようやく	-10.6581
ウィル	-10.6582
夫婦	-10.6583
nt	-10.6588
などと	-10.6589
モリ	-10.6591
ng	-10.6592
最低	-10.6594
私は	-10.6595
、1988	-10.6596
▁no	-10.6598
上記の	-10.6599
が始まり	-10.66
やす	-10.6601
ユニ	-10.6601
美しい	-10.6602
等で	-10.6603
宮崎	-10.6604
勲	-10.6606
α	-10.6607
モス	-10.6608
フェア	-10.6612
庁舎	-10.6619
ベリー	-10.662
に伴って	-10.6622
配備	-10.6623
テス	-10.6624
、1987	-10.6626
ルト	-10.6632
ster	-10.6632
『"	-10.6632
がい	-10.6633
ill	-10.6634
関心	-10.6634
疑問	-10.6635
以外にも	-10.6635
ノール	-10.6636
▁このように	-10.6636
▁以下の	-10.6637
誰	-10.6639
ut	-10.664
昼	-10.664
▁1969	-10.664
褐色	-10.664
者たち	-10.6645
こく	-10.6646
琉球	-10.6648
わか	-10.6652
ミング	-10.6653
楊	-10.6656
レンズ	-10.6657
od	-10.6658
01	-10.6659
数値	-10.6661
行事	-10.6661
バード	-10.6662
ペット	-10.6664
かもしれない	-10.6666
ギリシア	-10.6668
化し	-10.6669
東側	-10.6671
菓子	-10.6671
dd	-10.6672
▁その結果	-10.6672
用いられ	-10.6673
を担当する	-10.6674
ひと	-10.6675
徹	-10.6676
クイズ	-10.6677
庄	-10.6678
pr	-10.6679
だん	-10.6681
宋	-10.6685
にとっては	-10.6687
マガジン	-10.6689
▁1968	-10.6695
▁1977	-10.6699
サンタ	-10.67
死去した	-10.67
威	-10.6705
言う	-10.6706
乃	-10.6706
を打ち	-10.671
が発生し	-10.6715
▁con	-10.6716
正面	-10.6717
ウォ	-10.6718
メモリ	-10.672
業績	-10.6723
班	-10.6727
区の	-10.6727
なっている	-10.6727
連合軍	-10.6731
国連	-10.6731
容	-10.6732
位となった	-10.6732
西武	-10.6733
趙	-10.6734
在籍	-10.6734
良く	-10.6735
勲章	-10.6735
本来の	-10.6736
かみ	-10.6737
ll	-10.6739
それまでの	-10.674
尺	-10.6742
乾燥	-10.6742
富山	-10.6744
被害者	-10.6745
哲	-10.6748
著名な	-10.6751
za	-10.6754
酸素	-10.6755
勤め	-10.6759
ヒトラー	-10.6761
趣味	-10.6761
自体は	-10.6765
1972	-10.6766
sta	-10.6767
やはり	-10.6768
異常	-10.677
ig	-10.6771
結成された	-10.6777
家に	-10.6779
葬	-10.6781
は大	-10.6782
量産	-10.6787
診断	-10.6788
を求め	-10.6789
衝撃	-10.6792
ドイツ軍	-10.6794
年度の	-10.6795
研修	-10.6797
ヨン	-10.6799
きっかけ	-10.6799
停留所	-10.6799
束	-10.6808
を提供する	-10.6809
込	-10.681
認可	-10.6811
磨	-10.6812
療法	-10.6813
だから	-10.6813
タイプの	-10.6815
の弟	-10.6816
に住む	-10.6819
モア	-10.6821
賞金	-10.6823
どこ	-10.6823
を利用した	-10.6825
ツェ	-10.6825
態度	-10.6827
してしまった	-10.6828
mg	-10.6828
育	-10.6828
インターナショナル	-10.6828
サウス	-10.683
監	-10.6831
容量	-10.6831
コロ	-10.6832
とは異なる	-10.6834
朗	-10.6835
郭	-10.6836
che	-10.6837
古墳	-10.6843
コム	-10.6843
ナポレオン	-10.6848
を受賞	-10.685
ラテン語	-10.6851
パーソナリティ	-10.6851
トレーニング	-10.6852
るように	-10.6854
影響力	-10.6855
面積は	-10.6855
準優勝	-10.6857
▁父は	-10.6858
豆	-10.686
月末	-10.6861
亭	-10.6862
人たち	-10.6862
71	-10.6863
mlb	-10.6864
確保	-10.6871
日本国内	-10.6872
に際して	-10.6875
年シーズン	-10.6877
むしろ	-10.688
互いに	-10.6881
で行われる	-10.6882
司会	-10.6884
反映	-10.6885
栄養	-10.6888
以外は	-10.6889
武田	-10.6891
ネオ	-10.6892
をとる	-10.6892
積み	-10.6892
台風	-10.6893
ger	-10.6893
マラソン	-10.6896
死者	-10.6898
nba	-10.6905
迷	-10.6905
方が	-10.6906
直径	-10.6907
率は	-10.6908
上り	-10.691
1982	-10.691
将来	-10.691
示す	-10.691
黒人	-10.691
協議会	-10.691
者に	-10.6913
ポジション	-10.6914
工作	-10.6917
語で	-10.6918
輔	-10.6918
編纂	-10.692
1983	-10.692
運賃	-10.6921
広域	-10.6922
con	-10.6923
▁1944	-10.6923
に成功した	-10.6924
年間の	-10.6927
東方	-10.693
同期	-10.6931
何か	-10.6936
君主	-10.6936
ことである	-10.6937
マイクロ	-10.694
以前は	-10.6942
だという	-10.6943
変動	-10.6943
tu	-10.6944
この地域	-10.6946
、1985	-10.6947
を占める	-10.6947
財団	-10.6948
東宝	-10.6948
県の	-10.6949
されたもの	-10.6954
pu	-10.6956
ファミリー	-10.6956
5,000	-10.6958
あなた	-10.6959
創造	-10.6961
羊	-10.6962
逃れ	-10.6963
専攻	-10.6964
始	-10.6965
電鉄	-10.6965
長男	-10.6966
報告書	-10.6973
周年記念	-10.6973
▁すなわち	-10.6974
当日	-10.6976
ボーイ	-10.6977
族の	-10.6981
vs	-10.6983
書いた	-10.6986
郊外	-10.6987
使われた	-10.6987
突	-10.6988
トーマス	-10.6988
を加えた	-10.6988
チェコ	-10.6988
押	-10.6989
の末	-10.6993
ネン	-10.6996
ターン	-10.6997
宮廷	-10.6998
ノス	-10.7
学名	-10.7
最終的には	-10.7001
濃度	-10.701
の最初の	-10.7011
、1986	-10.7013
保守	-10.7013
tr	-10.7017
トラブル	-10.7017
高原	-10.7019
』("	-10.702
プラス	-10.7021
始まった	-10.7021
でん	-10.7022
作目	-10.7022
スティ	-10.7022
巨	-10.7023
ホル	-10.7023
動力	-10.7025
上がる	-10.7026
▁多くの	-10.7028
しょうがっこう	-10.7028
バンク	-10.7028
81	-10.7029
送り	-10.7029
bc	-10.7029
を開始し	-10.7029
▁=	-10.7029
のみである	-10.7029
名義で	-10.7032
エンディング	-10.7033
期に	-10.7034
町にある	-10.7035
戦場	-10.7038
いていた	-10.7038
対決	-10.7044
機関車	-10.7044
83	-10.7046
―	-10.7046
庭園	-10.7049
上部	-10.7052
予	-10.7056
会話	-10.7057
の森	-10.7061
に参戦	-10.7066
完全な	-10.7066
の舞台	-10.7068
中野	-10.7069
クレジット	-10.707
タッグ	-10.7071
頻繁に	-10.7071
に所属	-10.7071
号は	-10.7072
アプリ	-10.7075
ポンド	-10.7075
ができる	-10.7076
イス	-10.7077
領主	-10.7078
午前	-10.7081
my	-10.7081
物資	-10.7082
中華民国	-10.7082
選手として	-10.7083
の神	-10.7085
飛行機	-10.7086
1975	-10.7086
▁前	-10.7088
と呼ばれていた	-10.7089
独特の	-10.7089
を含めた	-10.7089
映	-10.7093
積極的に	-10.7093
コンテンツ	-10.7095
を結成	-10.7095
スリー	-10.7097
ロフ	-10.7097
徳川	-10.71
82	-10.7102
駐車場	-10.7103
-0	-10.7106
メタル	-10.7107
上げた	-10.7109
下で	-10.711
在位	-10.711
差し	-10.7112
りょう	-10.7112
▁北海道	-10.7115
が発売された	-10.7115
直後	-10.7117
tri	-10.7119
既存の	-10.7122
*	-10.7123
番線	-10.7124
通貨	-10.7125
爆	-10.7125
衰退	-10.7127
才能	-10.7127
▁これを	-10.7128
94	-10.7129
ナス	-10.713
げん	-10.713
高速道路	-10.7131
わず	-10.7134
なもの	-10.7135
〜』	-10.7136
shi	-10.7139
学問	-10.7139
の調査	-10.7139
▁se	-10.714
フレーム	-10.714
えい	-10.7142
▁mo	-10.7143
▁イギリス	-10.7144
岡山県	-10.7145
吹き	-10.7145
衆議院議員	-10.7146
中島	-10.7148
発電	-10.715
保管	-10.715
予測	-10.7151
反発	-10.7156
巨大	-10.7156
ショート	-10.7158
船団	-10.7158
近鉄	-10.7161
変わり	-10.7162
発達	-10.7163
開拓	-10.7163
まった	-10.7166
ないこと	-10.7166
▁したがって	-10.7167
家臣	-10.7169
水道	-10.7169
に用いられる	-10.717
を見た	-10.7172
侵入	-10.7174
テープ	-10.7176
▁やがて	-10.718
へ向かう	-10.7181
いだ	-10.7182
の利用	-10.719
チー	-10.719
プレーオフ	-10.7191
面で	-10.7194
dna	-10.7195
中断	-10.7196
ガール	-10.7196
種目	-10.7198
長野	-10.7198
岐阜	-10.7199
1969	-10.7199
▁o	-10.7203
登場した	-10.7203
ッサ	-10.7205
の前	-10.7205
は無い	-10.7206
開催された	-10.7206
艦長	-10.7207
下に	-10.7208
年ぶりの	-10.7208
の下に	-10.7215
を迎え	-10.7216
プレート	-10.7219
イェ	-10.722
循環	-10.7221
ent	-10.7223
煙	-10.7226
ラジオ番組	-10.7226
em	-10.7228
イラク	-10.7229
機が	-10.7231
に移り	-10.7232
点で	-10.7237
壇	-10.7238
走り	-10.7241
順に	-10.7241
ゾン	-10.7241
ティア	-10.7242
署	-10.7244
夫妻	-10.7245
に対応	-10.7246
育て	-10.7248
南海	-10.7254
キロメートル	-10.7254
蓋	-10.7254
したい	-10.7257
戦士	-10.7258
続け	-10.7259
1979	-10.726
巻き	-10.726
サンフランシスコ	-10.7262
することは	-10.7264
シオ	-10.7264
敗退	-10.7264
署名	-10.7265
バレー	-10.7269
になっており	-10.7269
不可能	-10.7269
進学	-10.727
論争	-10.7271
明らか	-10.7274
戦術	-10.7276
マイク	-10.7277
将棋	-10.7277
附属	-10.7279
のだ	-10.728
事件の	-10.728
ob	-10.7287
魏	-10.729
書かれた	-10.729
攻	-10.7292
プロモーション	-10.7293
到着	-10.7293
次々と	-10.7294
fi	-10.7297
弦	-10.7299
琴	-10.73
土曜	-10.7302
年までは	-10.7303
行く	-10.7306
大衆	-10.7308
自主	-10.731
郵便	-10.7312
観音	-10.7312
側が	-10.7313
ルン	-10.7316
ヴァイ	-10.7318
離れた	-10.732
リウス	-10.732
荷	-10.7322
以下のような	-10.7323
キャンペーン	-10.7326
藩の	-10.7329
うた	-10.7331
アレンジ	-10.7332
法案	-10.7333
磯	-10.7333
軍に	-10.7334
総裁	-10.7338
映画監督	-10.7338
受信	-10.7339
▁更に	-10.7342
当主	-10.7344
駐	-10.7345
ヴェー	-10.7348
ってきた	-10.735
述	-10.7353
ファイナル	-10.7355
を達成した	-10.7357
性を	-10.7359
努力	-10.736
干	-10.7362
岩手県	-10.7364
といえる	-10.7365
上級	-10.7368
の指導	-10.7371
だったため	-10.7371
を受けている	-10.7371
ハム	-10.7372
再現	-10.7372
囲	-10.7374
ためである	-10.738
限界	-10.738
不安	-10.7381
上がった	-10.7383
日本テレビ	-10.7383
文章	-10.7384
は再び	-10.7384
クリス	-10.7386
に渡り	-10.7387
が発生した	-10.7392
周期	-10.7393
開放	-10.7393
駅の	-10.7396
前田	-10.7396
えん	-10.74
公国	-10.74
クレイ	-10.7402
▁これらは	-10.7402
、1984	-10.7403
▁1967	-10.7406
北陸	-10.7406
武士	-10.7407
留学	-10.7408
車線	-10.7412
やすく	-10.7413
気象	-10.7418
クルー	-10.742
阪	-10.7422
状に	-10.7423
lan	-10.7423
ライター	-10.7426
者を	-10.7429
dj	-10.743
アルコール	-10.743
恒星	-10.743
披露	-10.7431
一般的に	-10.7432
まい	-10.7433
ナショナル	-10.7435
はまだ	-10.7436
呼称	-10.7436
松山	-10.7436
平方マイル	-10.7437
ギア	-10.7437
活躍した	-10.7443
聖書	-10.7444
コントロール	-10.7446
実践	-10.7447
ハード	-10.7448
涼	-10.7448
モンスター	-10.7449
鎖	-10.7449
任意の	-10.745
するように	-10.7453
他に	-10.7453
との間で	-10.7455
フィリップ	-10.7456
意味で	-10.7456
ルド	-10.7457
らい	-10.7461
を達成	-10.7462
を形成する	-10.7463
告げ	-10.7463
移植	-10.7464
は以下の	-10.7464
の活動	-10.7468
事が	-10.7469
禅	-10.747
ておらず	-10.7472
名古屋市	-10.7474
タンク	-10.7477
マール	-10.7479
今後	-10.7481
関与	-10.7483
月刊	-10.7489
保持	-10.7489
ドロ	-10.7489
犯人	-10.7489
限りで	-10.7491
隣接する	-10.7493
もない	-10.7493
といい	-10.7496
を起こす	-10.7496
蛇	-10.7497
会の	-10.7497
ヒロイン	-10.7497
発掘	-10.7498
▁三	-10.7501
するか	-10.7502
ることとなった	-10.7503
嵐	-10.7506
▁mi	-10.7506
国内の	-10.7509
在住	-10.7509
移住	-10.751
の三	-10.7515
は通常	-10.7517
きん	-10.7518
aaa	-10.7519
起源	-10.7519
週刊	-10.7521
▁1940	-10.7522
代替	-10.7522
最後	-10.7522
情報を	-10.7524
mer	-10.7524
が強く	-10.7526
込まれ	-10.7526
大西洋	-10.7526
白人	-10.7526
前方	-10.7526
(,	-10.7527
トランス	-10.7527
▁翌年	-10.7528
▁本作は	-10.753
従業員	-10.753
はそれぞれ	-10.7533
同意	-10.7535
民国	-10.7535
詳細は	-10.7536
品種	-10.7537
複雑な	-10.7539
しようとした	-10.7542
本種	-10.7543
ポップ	-10.7544
ブルース	-10.7544
送信	-10.7544
land	-10.7548
接近	-10.7552
に属し	-10.7552
科の	-10.7553
助教授	-10.7553
1968	-10.7556
ウー	-10.7561
東京大学	-10.7561
同時期に	-10.7565
▁1964	-10.7569
ケット	-10.757
定数	-10.7574
から約	-10.7574
たこと	-10.7576
南方	-10.7581
ボクシング	-10.7583
からである	-10.7585
免	-10.7587
を見る	-10.7588
経由	-10.7593
car	-10.7593
卓	-10.7597
ようとした	-10.7598
人数	-10.7599
十二	-10.7599
複合	-10.7603
1981	-10.7605
創刊	-10.7608
hd	-10.7608
修復	-10.7609
決議	-10.7609
ラク	-10.7612
澄	-10.7612
ようになっている	-10.7613
05	-10.7615
を中心とする	-10.7617
合流	-10.7618
和田	-10.7621
著作権	-10.7622
編入	-10.7624
寄付	-10.7624
化石	-10.7626
悪魔	-10.7627
としていた	-10.7628
dc	-10.7634
勝負	-10.7637
みや	-10.7641
なかったが	-10.7644
フィート	-10.7645
唱	-10.7646
の首都	-10.7646
夏の	-10.7649
狂	-10.7651
製作された	-10.7653
ねん	-10.7654
正式な	-10.7655
懸念	-10.7655
に入ると	-10.7656
っていない	-10.7657
1973	-10.7658
晩	-10.7659
指摘	-10.7665
國	-10.7667
山梨県	-10.7667
の放送	-10.7667
を続けた	-10.767
に行く	-10.7671
リル	-10.7673
警察署	-10.7675
を務めている	-10.7675
1974	-10.7676
黒い	-10.7678
元の	-10.768
軟	-10.7681
日付	-10.7683
の全	-10.7683
と言い	-10.7684
発着	-10.7687
付近に	-10.769
名誉教授	-10.7691
飛行場	-10.7691
損害	-10.7692
指揮者	-10.7693
up	-10.7694
テイ	-10.7694
研究会	-10.7694
終戦	-10.7695
感覚	-10.7696
新設	-10.7698
モール	-10.7699
ナウ	-10.7705
の導入	-10.7707
イギリス軍	-10.7707
けんどう	-10.7709
建立	-10.7712
と異なり	-10.7713
男爵	-10.7713
オスマン帝国	-10.7713
視点	-10.7714
1978	-10.7715
配布	-10.7718
合戦	-10.7719
ジャクソン	-10.7721
毎	-10.7721
の再	-10.7721
場合に	-10.7723
物を	-10.7723
自宅	-10.7724
を記録し	-10.7724
基本的な	-10.7725
怒り	-10.7725
語の	-10.7725
続ける	-10.7726
ラスト	-10.7727
会計	-10.773
を決めた	-10.7734
エール	-10.7738
を機に	-10.7738
に参加する	-10.7739
認知	-10.7741
ok	-10.7742
附	-10.7743
訓	-10.7743
猿	-10.7745
買	-10.7746
▁この頃	-10.7746
しまう	-10.7747
tor	-10.7748
プロイセン	-10.7748
山頂	-10.7749
淳	-10.775
芸能	-10.7751
混	-10.7755
代表的な	-10.7757
ウェブサイト	-10.7757
何度も	-10.7759
の都市	-10.776
そのうち	-10.7763
針	-10.7764
コンテスト	-10.7764
ルーム	-10.7765
視聴者	-10.7768
刺激	-10.7769
cl	-10.777
外観	-10.777
違反	-10.777
ローン	-10.7771
サイン	-10.7771
ニュ	-10.7773
ディス	-10.7774
成人	-10.7774
を残した	-10.7776
変身	-10.7776
共有	-10.778
だけの	-10.7782
碑	-10.7786
長距離	-10.7787
を図る	-10.7788
朝日	-10.7789
化合物	-10.7794
築	-10.7795
権を	-10.7796
第四	-10.7796
作った	-10.7799
ワーク	-10.7801
セルビア	-10.7802
を採用した	-10.7809
大分	-10.7809
▁pro	-10.781
質問	-10.7811
の二	-10.7813
に達した	-10.7814
優勝した	-10.7815
縮	-10.7816
品質	-10.7816
死んだ	-10.7818
ていたため	-10.7818
救助	-10.782
売り上げ	-10.7822
uss	-10.7823
託	-10.7825
ae	-10.7828
でデビュー	-10.783
松平	-10.7832
見られ	-10.7833
闘争	-10.7834
液体	-10.7836
たもの	-10.7837
非難	-10.7837
出演した	-10.784
が存在し	-10.7841
1971	-10.7842
が発生する	-10.7843
宝塚	-10.7843
ゴル	-10.7843
を受賞した	-10.7847
小野	-10.7848
アカ	-10.7849
噂	-10.7849
に渡って	-10.7852
直後の	-10.7853
様子	-10.7856
盗	-10.7856
一切	-10.7857
コフ	-10.7857
という名称	-10.7859
シング	-10.7859
スパ	-10.786
チア	-10.7863
オプション	-10.7864
司教	-10.7864
横須賀	-10.7865
設立された	-10.7865
終点	-10.7866
▁on	-10.7866
全面	-10.7867
証言	-10.7869
社が	-10.787
貝	-10.7873
フロ	-10.7875
を続け	-10.7879
にくい	-10.7882
不正	-10.7883
後ろ	-10.7883
いなかった	-10.7886
鋼	-10.7889
調べ	-10.7889
王の	-10.7889
童	-10.7889
ルーマニア	-10.7891
完了	-10.7892
得意	-10.7892
▁たとえば	-10.7894
いった	-10.7894
天正	-10.7894
混合	-10.7895
の概念	-10.7896
南部の	-10.7898
竣工	-10.7899
相続	-10.7905
代理	-10.7905
、1983	-10.7906
フェスティバル	-10.7906
スル	-10.7908
交易	-10.7909
米軍	-10.7911
いき	-10.7911
レート	-10.7913
キル	-10.792
へ移籍	-10.792
チェーン	-10.7921
別れ	-10.7923
コピー	-10.7924
促進	-10.7924
北側	-10.7927
ドゥー	-10.7927
祝	-10.7931
ff	-10.7931
日本に	-10.7931
ステップ	-10.7932
崇	-10.7935
ラップ	-10.7935
提示	-10.7941
▁1966	-10.7943
場所に	-10.7944
1976	-10.7946
何らかの	-10.7947
才	-10.7949
pi	-10.7949
中隊	-10.7949
疑	-10.7953
登場人物	-10.7954
の間の	-10.7956
コメディ	-10.7959
▁1965	-10.796
トイレ	-10.7961
tko	-10.7961
発生する	-10.7963
▁1941	-10.7965
漫画家	-10.7966
外側	-10.7973
宇都宮	-10.7974
経済学	-10.7975
が無い	-10.7976
セミ	-10.7976
ペイ	-10.7976
と結婚	-10.7979
出版された	-10.798
の多い	-10.7982
グー	-10.7982
ゾーン	-10.7985
、1982	-10.7989
ルス	-10.7989
務め	-10.799
やり	-10.7992
、1950	-10.7992
hp	-10.7992
改装	-10.7994
rpg	-10.7999
忍	-10.8001
キス	-10.8002
▁彼女は	-10.8004
に大きな	-10.8004
参加者	-10.8006
が設置された	-10.8006
コマンド	-10.8008
使用され	-10.801
旨	-10.8011
四郎	-10.8011
那	-10.8016
処刑	-10.8019
トヨタ	-10.8019
朝廷	-10.8019
ak	-10.8019
招待	-10.8021
論理	-10.8022
大量の	-10.8022
代の	-10.8023
ティック	-10.8024
移	-10.8024
講談社	-10.8025
メタ	-10.8026
特殊な	-10.8027
スコット	-10.8028
協議	-10.8028
はほぼ	-10.803
の番組	-10.8032
のちの	-10.8036
▁南	-10.8038
上流	-10.804
駅で	-10.804
入手	-10.8042
実力	-10.8043
day	-10.8044
が中心	-10.8044
92	-10.8046
電源	-10.8047
献	-10.8048
アニ	-10.805
乗り入れ	-10.8053
しさ	-10.8055
せた	-10.8055
大韓民国	-10.8056
ビーチ	-10.8058
タクシー	-10.8062
の成績	-10.8062
想定	-10.8065
出撃	-10.8065
グラフ	-10.8078
採用された	-10.8079
青森県	-10.8081
が強い	-10.8084
使用されている	-10.8086
騒動	-10.8086
ノイ	-10.8089
漁業	-10.8089
時台	-10.809
クライ	-10.809
世紀後半	-10.8091
共和党	-10.8091
後任	-10.8093
▁通常	-10.8094
売上	-10.8094
達は	-10.8095
ではなかった	-10.8099
密度	-10.8102
前身	-10.8103
古く	-10.8103
淵	-10.8105
に必要な	-10.8105
刊行された	-10.8106
トス	-10.8107
事項	-10.8111
と言った	-10.8117
パック	-10.8118
滞在	-10.812
の増加	-10.812
建国	-10.812
世紀末	-10.8121
最初	-10.8123
チベット	-10.8126
悪化	-10.8126
結果として	-10.8131
番目に	-10.8132
ダウンロード	-10.8133
出演者	-10.8133
境内	-10.8134
闇	-10.8134
内側	-10.8139
庵	-10.814
叔父	-10.814
まれ	-10.814
くん	-10.8142
直前に	-10.8143
室内	-10.8143
アッ	-10.8143
高田	-10.8144
カンパニー	-10.8144
続き	-10.8146
先頭	-10.8146
知られ	-10.8148
創設された	-10.8148
さま	-10.8148
リャ	-10.8149
放送開始	-10.8149
を扱う	-10.8149
修行	-10.815
が大きい	-10.815
衣装	-10.8152
ことや	-10.8153
を率いて	-10.8155
幹	-10.8157
バランス	-10.8158
城の	-10.8159
わけ	-10.8159
量は	-10.8159
使う	-10.8161
冒頭	-10.8163
を果たし	-10.8166
と結婚した	-10.8166
が少ない	-10.8167
位に	-10.8167
タス	-10.8167
入口	-10.8168
絶滅	-10.8169
平安時代	-10.8169
通勤	-10.8171
柏	-10.8171
触	-10.8172
キューバ	-10.8172
発展した	-10.8173
天然	-10.8174
管轄	-10.8175
限	-10.8177
本格的な	-10.8177
静岡	-10.8179
ふく	-10.8179
ブルガリア	-10.8179
幅広い	-10.8181
衛生	-10.8182
授与	-10.8183
▁他に	-10.8183
▁昭和	-10.8185
tion	-10.8186
いん	-10.8186
ld	-10.8187
▁japan	-10.819
を起こし	-10.819
あん	-10.8191
前から	-10.8192
tic	-10.8193
敷設	-10.8194
高山	-10.8194
女性の	-10.8196
大人	-10.8196
共演	-10.8197
ところで	-10.8199
プス	-10.8204
途	-10.8206
空中	-10.8208
下記の	-10.8209
▁父	-10.821
機動	-10.821
ぼう	-10.8211
建築家	-10.8212
df	-10.8212
の長さ	-10.8212
観光客	-10.8216
ミラー	-10.8217
理想	-10.8217
ランプ	-10.8218
ホン	-10.8219
であるという	-10.8221
しなければならない	-10.8221
に見られる	-10.8222
_2	-10.8222
掛	-10.8224
の北	-10.8224
all	-10.8225
ジョンソン	-10.8226
先生	-10.8227
回衆議院議員総選挙	-10.8228
ときは	-10.8228
人権	-10.8228
年目	-10.8232
pro	-10.8232
ロゴ	-10.8232
たま	-10.8234
に達し	-10.8237
泥	-10.8238
当初の	-10.8239
隊長	-10.8239
瑞	-10.8241
村上	-10.8241
リオン	-10.8244
るという	-10.8245
過ぎ	-10.8245
蘇	-10.8245
キャスター	-10.8246
車内	-10.8248
起点	-10.8248
を求めた	-10.8249
硬	-10.8249
選定	-10.825
シュー	-10.8252
を感じ	-10.8253
魅力	-10.8254
ze	-10.8257
フロー	-10.8258
山形	-10.8258
新型	-10.8259
小惑星	-10.826
校長	-10.826
mf	-10.826
彼を	-10.8261
▁1942	-10.8262
に所在する	-10.8262
進んで	-10.8264
皇后	-10.8265
吸収	-10.8266
▁以下は	-10.8267
ることで	-10.8271
拝	-10.8272
93	-10.8272
部下	-10.8273
恋人	-10.8276
ジャーナリスト	-10.8277
-20	-10.8279
山口県	-10.8279
列車が	-10.828
に関わる	-10.8281
退任	-10.8283
国外	-10.8284
救援	-10.8284
綿	-10.8285
の基礎	-10.8287
水路	-10.8287
熊本県	-10.8287
の整備	-10.8288
流域	-10.8288
とり	-10.8288
初演	-10.8289
可能である	-10.8289
踊り	-10.829
吸	-10.8293
婚	-10.8294
砲撃	-10.8295
▁1943	-10.8296
gen	-10.8296
ツィ	-10.8296
で生まれた	-10.8298
潜	-10.8299
警戒	-10.8303
同士	-10.8305
くなる	-10.8306
を使い	-10.831
ヴェン	-10.8312
130	-10.8312
シャル	-10.8317
の活躍	-10.8318
ヒュー	-10.8318
する場合	-10.8319
ray	-10.8319
を持たない	-10.832
オーナー	-10.832
制覇	-10.8321
アレ	-10.8323
統制	-10.8324
所蔵	-10.8324
は現在	-10.8324
ity	-10.8325
クリスマス	-10.8327
視聴率	-10.8329
明治時代	-10.8329
のアルバム	-10.8331
快速	-10.8332
ようとする	-10.8334
市川	-10.8335
ズは	-10.8335
数十	-10.8335
両国	-10.8337
高校生	-10.8337
見た	-10.8339
拓	-10.8341
の両方	-10.8342
締結	-10.8345
のことを	-10.8345
くら	-10.8346
手を	-10.8347
に及ぶ	-10.8347
ともいう	-10.8354
番組の	-10.8359
又	-10.8361
地域で	-10.8361
長らく	-10.8366
nk	-10.8366
講	-10.8366
les	-10.8366
城主	-10.8367
容易に	-10.8367
曲が	-10.8368
本格的に	-10.8369
余り	-10.837
を理由に	-10.8372
であることを	-10.8373
ちゅう	-10.8374
super	-10.8375
バレーボール	-10.8378
▁最初の	-10.8378
残る	-10.838
第一次世界大戦	-10.838
準決勝	-10.838
西側	-10.8381
秋田県	-10.8384
先端	-10.8385
スコア	-10.8386
の流れ	-10.8386
騎士	-10.8386
の言葉	-10.8387
の代表	-10.8389
昆虫	-10.839
捨て	-10.8391
りゅう	-10.8394
降格	-10.8397
昇進	-10.8397
終結	-10.8398
答え	-10.8399
検出	-10.84
年連続	-10.84
ようである	-10.8402
ニス	-10.8406
通じ	-10.8406
旧制	-10.8407
着陸	-10.8407
的で	-10.8409
鍵	-10.8411
著者	-10.8412
▁当	-10.8415
第一次	-10.8416
▁0	-10.8416
の情報	-10.8416
下流	-10.8418
グラム	-10.8418
感じ	-10.8419
活性化	-10.842
か所	-10.842
ユナイテッド	-10.8422
用意	-10.8423
辛	-10.8423
は他の	-10.8424
塁	-10.8425
参入	-10.8425
をして	-10.8428
つつある	-10.8428
各地で	-10.8429
ny	-10.843
部隊は	-10.843
来る	-10.8432
の母	-10.8432
隊員	-10.8433
さき	-10.8434
を学び	-10.8434
付けられた	-10.8437
ンド	-10.844
魚雷	-10.844
シアター	-10.8442
末期	-10.8444
爆撃	-10.8445
コンクール	-10.8446
した際に	-10.8446
珍しい	-10.8446
必ず	-10.8447
前面	-10.8447
アナログ	-10.8447
利用できる	-10.8448
を示し	-10.8448
を出し	-10.8451
クロアチア	-10.8452
▁1930	-10.8454
チャレンジ	-10.8456
特集	-10.8458
堺	-10.8459
フリ	-10.8459
タール	-10.8462
曲線	-10.8463
▁同じ	-10.8463
払い	-10.8463
南側	-10.8463
会館	-10.8467
模型	-10.8467
ヤマ	-10.8468
各地	-10.8472
りん	-10.8472
と述べ	-10.8474
2.5	-10.8474
版では	-10.8475
、1972	-10.8475
3%	-10.8478
の設置	-10.8478
動員	-10.8482
鉱	-10.8482
耐	-10.8483
パネル	-10.8483
くり	-10.8484
▁1963	-10.8484
岡崎	-10.8484
文芸	-10.8486
年代以降	-10.8487
1967	-10.8488
えない	-10.8489
左翼	-10.8489
車種	-10.8493
ミリ	-10.8495
1977	-10.8498
が挙げられる	-10.8501
1%	-10.8501
前者	-10.8503
-15	-10.8504
墓地	-10.8506
たちに	-10.8506
ホールディングス	-10.8508
遊び	-10.8509
ハウ	-10.8509
退職	-10.851
化され	-10.851
日曜	-10.8511
技術者	-10.8512
▁東京都出身	-10.8512
選ばれた	-10.8515
ミュンヘン	-10.8515
方程式	-10.8516
っと	-10.8516
キック	-10.8517
歌唱	-10.8517
変形	-10.8519
配慮	-10.8519
改めて	-10.8519
炉	-10.852
が初めて	-10.8521
中央部	-10.8527
と同様の	-10.8529
公爵	-10.853
の地	-10.8532
この曲	-10.8534
lp	-10.8534
近郊	-10.8535
の子孫	-10.8536
野村	-10.8536
を記録	-10.8537
釣り	-10.8539
シーズンの	-10.8539
初めての	-10.8539
に次いで	-10.854
終了した	-10.854
エリザベス	-10.8542
二次	-10.8545
冬季	-10.8545
一体	-10.8546
愛称	-10.8546
と一緒に	-10.8547
ヨハン	-10.8547
エク	-10.8547
cu	-10.8548
地中海	-10.8548
恐れ	-10.8549
淡	-10.8549
小倉	-10.855
続いた	-10.855
の主要	-10.8551
することになる	-10.8553
側から	-10.8554
初登場	-10.8556
身分	-10.8556
youtube	-10.8557
イスラム	-10.8557
を破り	-10.8558
虚	-10.8559
我々	-10.8559
if	-10.8559
胡	-10.8561
比例	-10.8561
個別	-10.8561
を学ぶ	-10.8562
函館	-10.8564
探偵	-10.8564
養子	-10.8564
ちゃ	-10.8564
述べている	-10.8571
斗	-10.8573
の自由	-10.8574
初となる	-10.8576
階段	-10.8576
継ぎ	-10.8577
1964	-10.858
討ち	-10.8581
ウム	-10.8581
月にかけて	-10.8581
最高の	-10.8581
、1979	-10.8582
歴史的	-10.8582
目を	-10.8583
アラン	-10.8583
の色	-10.8583
に再	-10.859
教会の	-10.8593
船体	-10.8596
分散	-10.8596
の運行	-10.8597
風景	-10.8597
であることから	-10.8597
元禄	-10.8598
を多く	-10.8599
洪水	-10.86
線を	-10.8603
アール	-10.8603
のデザイン	-10.8606
▁以下	-10.8606
せずに	-10.8607
無く	-10.8608
一緒に	-10.8609
引退した	-10.8609
水準	-10.861
優秀	-10.861
間もなく	-10.8611
」・「	-10.8611
辰	-10.8612
ことが多く	-10.8613
に師事	-10.8614
語り	-10.8616
効	-10.8618
生物学	-10.8618
シュタイン	-10.862
抗争	-10.862
カフェ	-10.862
などでは	-10.8624
辻	-10.8626
陥落	-10.8628
五輪	-10.8629
を通る	-10.8629
の国	-10.863
俗	-10.863
ケーブル	-10.8631
武蔵	-10.8632
fo	-10.8633
をもとに	-10.8636
2,000	-10.8636
しかも	-10.8636
相手の	-10.8636
gs	-10.8641
▁同時に	-10.8643
ヨーロッパの	-10.8645
したことで	-10.8646
僅か	-10.8647
ジオ	-10.8648
福井	-10.8649
通常は	-10.8649
単語	-10.8649
繰り	-10.865
フィル	-10.8651
バッ	-10.8653
進歩	-10.8654
ミュ	-10.8654
に代わって	-10.8655
濃	-10.8656
であって	-10.8656
上田	-10.8656
征	-10.8657
た後	-10.8659
を挙げた	-10.866
この作品	-10.866
電気鉄道	-10.866
競走馬	-10.8664
故	-10.8666
用いられている	-10.8666
続編	-10.8667
▁world	-10.8667
大分県	-10.8667
後退	-10.8667
▁フランス	-10.8669
ないため	-10.8669
泊	-10.8669
口径	-10.867
故郷	-10.867
功績	-10.867
を設立し	-10.8671
建設された	-10.8672
の称号	-10.8673
緑色	-10.8674
演説	-10.8674
にわたる	-10.8674
、1975	-10.8675
くらい	-10.8678
王位	-10.868
はこれを	-10.8682
条例	-10.8683
のもとで	-10.8683
▁以降	-10.8686
ないように	-10.8686
人種	-10.8686
になること	-10.8687
するのは	-10.8689
ユーロ	-10.869
▁le	-10.8691
その後は	-10.8692
取る	-10.8693
の部分	-10.8694
独占	-10.8694
死後	-10.8697
介入	-10.8698
他にも	-10.8701
バイオ	-10.8703
、1981	-10.8703
求	-10.8703
はあまり	-10.8703
この地	-10.8704
▁このほか	-10.8706
徳島	-10.8711
証券	-10.8712
ギン	-10.8713
目的で	-10.8715
とはいえ	-10.8716
と言って	-10.8717
物理学	-10.8722
を挙げる	-10.8723
後部	-10.8724
届	-10.8725
回大会	-10.8726
遺産	-10.8726
将校	-10.8731
登場している	-10.8731
籠	-10.8732
の変更	-10.8733
1940	-10.8736
box	-10.8737
実業家	-10.8739
の地名	-10.874
ice	-10.874
先輩	-10.8741
脚本家	-10.8742
駆け	-10.8743
制作された	-10.8745
実在	-10.8746
早い	-10.8746
サッカー選手	-10.8749
ウェブ	-10.8752
検索	-10.8752
を用い	-10.8754
借	-10.8755
北西部	-10.8756
によるもの	-10.8757
圧縮	-10.8759
の場	-10.876
は同じ	-10.8761
マネージャー	-10.8761
儀式	-10.8761
頂	-10.8761
晩年	-10.8763
▁do	-10.8763
引用	-10.8765
嗣	-10.8765
mar	-10.8766
物理	-10.8768
筒	-10.8769
平面	-10.877
差別	-10.8771
芽	-10.8772
スペ	-10.8774
コマ	-10.8775
】	-10.8781
中国語	-10.8782
ヴィルヘルム	-10.8785
延期	-10.8785
簡易	-10.8788
に入って	-10.8789
提携	-10.8789
技法	-10.8789
ist	-10.879
マックス	-10.8791
削除	-10.8791
県内	-10.8792
長崎県	-10.8792
の強い	-10.8793
有機	-10.8793
生放送	-10.8794
ごろ	-10.8797
残っている	-10.8798
息子の	-10.8799
地の	-10.88
結晶	-10.88
ついた	-10.88
ファイ	-10.8807
の歌	-10.8807
と言われ	-10.8807
▁ca	-10.8808
まもなく	-10.8809
呼	-10.8809
リトアニア	-10.8814
命中	-10.8817
end	-10.8818
停車	-10.8818
ハーン	-10.8819
雰囲気	-10.882
改札	-10.8821
を迎える	-10.8822
団地	-10.8823
tokyo	-10.8823
ヴァイオリン	-10.8827
設	-10.8828
子供たち	-10.8829
と主張した	-10.883
残った	-10.8831
立候補	-10.8832
たく	-10.8833
管区	-10.8834
訴	-10.8835
別名	-10.8835
号の	-10.8835
後には	-10.8837
第二次	-10.8839
と契約	-10.884
霧	-10.8841
イースト	-10.8843
ものに	-10.8843
下部	-10.8844
bl	-10.8846
応募	-10.8849
低迷	-10.885
配列	-10.8851
ばん	-10.8852
々と	-10.8853
役者	-10.8854
現れ	-10.8854
原料	-10.8854
アブ	-10.8855
緩和	-10.8857
ったり	-10.8858
大野	-10.8858
圧力	-10.8858
複雑	-10.8858
松竹	-10.8862
橋本	-10.8863
栃木県	-10.8863
▁結局	-10.8863
金曜	-10.8865
銘	-10.8866
勉強	-10.8867
嫌	-10.8867
得られる	-10.8869
候補者	-10.8873
親王	-10.8877
込め	-10.8879
aa	-10.8879
シネマ	-10.888
含まれ	-10.888
進む	-10.888
生息	-10.8883
を発売	-10.8886
山崎	-10.8888
のみの	-10.8888
="2"|-||	-10.8888
に達する	-10.8889
tro	-10.889
主任	-10.889
ある程度	-10.889
ぶん	-10.8891
シップ	-10.8892
バウ	-10.8892
沿線	-10.8895
合わせて	-10.8898
ならない	-10.89
創建	-10.8902
1903	-10.8904
sm	-10.8904
膝	-10.8905
コウ	-10.8906
名で	-10.8907
と考え	-10.8912
ワイド	-10.8912
-17	-10.8913
日常	-10.8914
複	-10.8915
克	-10.8916
、1978	-10.8917
に対応する	-10.8918
合格	-10.8918
港湾	-10.8919
が決定	-10.8919
キア	-10.8919
フェリー	-10.892
かつては	-10.892
元々	-10.8921
に続く	-10.8921
皮膚	-10.8922
梨	-10.8922
特別な	-10.8923
公開された	-10.8923
十分な	-10.8924
の開催	-10.8924
主宰	-10.8925
繊維	-10.8929
全員が	-10.893
ju	-10.8931
チリ	-10.8931
使用されていた	-10.8931
に存在した	-10.8932
▁1962	-10.8933
▁ho	-10.8935
エロ	-10.8935
佳	-10.8936
の制作	-10.8936
テレビ朝日	-10.8942
聞	-10.8942
val	-10.8942
ンは	-10.8942
大気	-10.8943
かす	-10.8945
の前身	-10.8946
滅亡	-10.8948
チョウ	-10.8949
サークル	-10.895
、1976	-10.895
戦死	-10.8952
町内	-10.8953
ばら	-10.8954
決め	-10.8955
の攻撃	-10.8955
中退	-10.8956
序	-10.8957
伏	-10.8957
学位	-10.8958
周り	-10.896
に勤務	-10.896
知られる	-10.8962
量の	-10.8963
消滅した	-10.8964
を訪れ	-10.8965
年以降は	-10.8966
幻	-10.8966
の選手	-10.8966
シェア	-10.8967
行われていた	-10.8968
重複	-10.8969
日々	-10.8969
振動	-10.8973
らなかった	-10.8973
顧客	-10.8974
多摩	-10.8975
めて	-10.8975
てしまい	-10.8975
人事	-10.8978
さず	-10.8978
悟	-10.8981
2%	-10.8983
の状態	-10.8984
する必要がある	-10.8985
代藩主	-10.8986
ストン	-10.8986
亮	-10.8986
手に	-10.8988
まったく	-10.8989
止	-10.899
薬物	-10.8992
の次男	-10.8992
細菌	-10.8993
▁まさ	-10.8994
寺の	-10.8996
ヘリコプター	-10.8998
▁本名は	-10.8998
各地の	-10.8999
の運営	-10.8999
エド	-10.8999
残りの	-10.9
▁li	-10.9002
跡地	-10.9003
自体	-10.9004
数の	-10.9005
しようとする	-10.9006
の動き	-10.9007
を学んだ	-10.9007
を卒業	-10.9007
客車	-10.9008
を送り	-10.9008
▁1961	-10.9008
変化する	-10.9009
playstation	-10.9009
ならびに	-10.901
コロンビア	-10.9011
退団	-10.9013
ニール	-10.9013
金曜日	-10.9013
クール	-10.9014
出演している	-10.9016
曲の	-10.9017
東急	-10.9017
大会では	-10.9019
内戦	-10.9021
代表として	-10.9021
に位置している	-10.9021
財務	-10.9024
ヒー	-10.9025
滋賀県	-10.9026
、1973	-10.9028
馬場	-10.9028
▁高	-10.9028
割り	-10.903
出場した	-10.903
ーラ	-10.903
責任者	-10.9033
コミックス	-10.9036
ウォーター	-10.9036
900	-10.9037
味方	-10.9039
ana	-10.9039
刑務所	-10.904
全線	-10.9041
さか	-10.9042
hy	-10.9044
肺	-10.9045
立地	-10.9046
例として	-10.9051
芸人	-10.9051
終わり	-10.9053
110	-10.9055
▁マ	-10.9055
一時的に	-10.9058
にいる	-10.9059
垣	-10.9062
征服	-10.9063
にする	-10.9063
残留	-10.9065
の生活	-10.9068
91	-10.9069
人材	-10.9069
大宮	-10.907
もっと	-10.9072
タッチ	-10.9072
映画化	-10.9074
といわれている	-10.9077
と呼び	-10.9081
▁–	-10.9082
ピーク	-10.9085
pri	-10.9085
すけ	-10.9086
救	-10.9089
枚の	-10.909
登山	-10.909
を獲得し	-10.9091
ほん	-10.9092
ガラ	-10.9094
近衛	-10.9094
径	-10.9094
が設けられ	-10.9096
段階で	-10.9098
稿	-10.9098
描かれている	-10.9105
を進め	-10.9107
珠	-10.911
ジョーンズ	-10.911
のキャラクター	-10.9111
出現	-10.9112
打ち上げ	-10.9113
気持ち	-10.9113
シャルル	-10.9113
を重ね	-10.9114
エクス	-10.9115
の外	-10.9119
▁一	-10.9119
持つ	-10.912
▁fifa	-10.9122
する形で	-10.9122
プラットフォーム	-10.9122
出馬	-10.9124
ショウ	-10.9124
切り替え	-10.9125
堤	-10.9126
一時期	-10.9126
当地	-10.9126
車は	-10.9126
金額	-10.9127
山形県	-10.9127
北部の	-10.9128
に向かった	-10.913
韓国の	-10.9132
夕方	-10.9135
1500	-10.9137
説得	-10.9138
決勝で	-10.9139
は全	-10.9143
注目	-10.9147
王国の	-10.9147
百貨店	-10.9148
吉野	-10.9148
mt	-10.9148
標本	-10.9148
れん	-10.915
の人々	-10.9153
企業の	-10.9154
刃	-10.9154
ten	-10.9156
匹	-10.9156
騎	-10.9156
原則として	-10.9158
佐々木	-10.9158
廃車	-10.9159
に移転	-10.9159
スイッチ	-10.9159
入場	-10.9161
石炭	-10.9163
セーブ	-10.9163
いま	-10.9163
を使用している	-10.9165
専	-10.9166
ニャ	-10.917
撃	-10.9176
▁so	-10.9177
傘下の	-10.9178
番台	-10.9179
航行	-10.9179
阪急	-10.9179
0.0	-10.9181
任期	-10.9182
民衆	-10.9184
▁live	-10.9187
細川	-10.9187
作画	-10.9187
ディオ	-10.9188
実施された	-10.9188
日目	-10.919
リク	-10.919
つけた	-10.919
ゴム	-10.9191
付近で	-10.9191
菅	-10.9191
幕末	-10.9194
ことはない	-10.9194
につき	-10.9194
場所で	-10.9196
1965	-10.9198
都市計画	-10.92
wbc	-10.92
マップ	-10.92
牽引	-10.92
イエス	-10.9201
線は	-10.9202
を主	-10.9202
"』	-10.9205
都市圏	-10.9206
願い	-10.9206
岬	-10.9207
啓	-10.9208
グラフィック	-10.9209
▁you	-10.9212
バルセロナ	-10.9214
行い	-10.9215
フト	-10.9215
1966	-10.9218
づけ	-10.9219
損	-10.922
▁正	-10.9221
スポット	-10.9221
ud	-10.9222
1918	-10.9223
戦の	-10.9223
1919	-10.9224
1930	-10.9224
非常	-10.9226
として活動	-10.9226
テーブル	-10.923
を作った	-10.9232
諏訪	-10.9235
尿	-10.9236
競	-10.9237
欲	-10.9237
家督	-10.9238
勅	-10.9239
結び	-10.924
住宅地	-10.9241
映画の	-10.9242
初戦	-10.9243
を含めて	-10.9243
加速	-10.9244
運輸	-10.9244
1902	-10.9246
▁1920	-10.9246
肥	-10.9248
▁専門は	-10.9249
と言える	-10.9252
当然	-10.9254
考	-10.9254
延伸	-10.9255
殆ど	-10.9257
が必要である	-10.9258
▁このうち	-10.9258
小屋	-10.9259
烏	-10.926
がく	-10.926
にかけての	-10.9263
に設置された	-10.9266
に到着した	-10.9268
巡洋艦	-10.9269
同僚	-10.9271
マンション	-10.9271
▁番組	-10.9276
順次	-10.9277
潤	-10.9277
退役	-10.9278
バイエルン	-10.9279
リーは	-10.9279
出来ない	-10.9279
控え	-10.928
全般	-10.9281
に任命された	-10.9281
変数	-10.9283
住居	-10.9285
▁本作	-10.9288
▁music	-10.9289
出た	-10.9289
棚	-10.929
主役	-10.929
るべき	-10.929
組み合わせ	-10.9291
不満	-10.9293
フィラデルフィア	-10.9293
ls	-10.9294
同士の	-10.9294
海域	-10.9297
を書き	-10.9298
到達	-10.9298
現存する	-10.93
と改名	-10.93
しかない	-10.9303
参考	-10.9304
▁エ	-10.9305
扱う	-10.9305
ストロ	-10.9306
で優勝	-10.9308
齢	-10.9309
殻	-10.931
を経由して	-10.9311
奈良県	-10.9312
伊豆	-10.9313
施工	-10.9314
mac	-10.9315
min	-10.9316
最新	-10.9317
おき	-10.9318
心理	-10.9319
学校の	-10.9323
十分	-10.9324
建築物	-10.9325
何も	-10.9328
らせ	-10.9328
ノフ	-10.933
必要な	-10.9334
に従い	-10.9334
コーヒー	-10.9336
恐怖	-10.9336
、1974	-10.9338
に比べ	-10.9341
所持	-10.9342
譜	-10.9342
放棄	-10.9346
行っている	-10.9348
商店街	-10.935
がほとんど	-10.9351
融合	-10.9352
08	-10.9355
不能	-10.9355
、1977	-10.9356
に移籍した	-10.9358
を知る	-10.9358
かない	-10.9359
灰	-10.936
いつ	-10.936
out	-10.9361
トロン	-10.9363
理由は	-10.9365
北区	-10.9365
手続き	-10.9366
ドリーム	-10.9368
グレー	-10.9369
ムシ	-10.937
俺	-10.937
小川	-10.937
考案	-10.937
を繰り返し	-10.9371
1944	-10.9371
行われている	-10.9371
ペー	-10.9372
養成	-10.9373
が少なく	-10.9373
セラ	-10.9375
トウ	-10.9375
チップ	-10.9376
通路	-10.9378
満州	-10.938
捕手	-10.9382
sk	-10.9382
カッ	-10.9383
幼稚園	-10.9383
富山県	-10.9384
140	-10.9384
kw	-10.9385
水平	-10.9386
講義	-10.9386
1922	-10.9387
▁di	-10.9389
マレーシア	-10.939
▁1947	-10.939
市に	-10.9391
完	-10.9392
フジ	-10.9392
てくる	-10.9393
役員	-10.9396
▁pa	-10.9397
バレエ	-10.9397
her	-10.9398
で構成される	-10.9399
併	-10.94
主義者	-10.9402
ランク	-10.9404
季節	-10.9406
彫刻	-10.9409
嶺	-10.9412
スカウト	-10.9415
保証	-10.9417
▁1959	-10.9417
正しい	-10.9418
ストップ	-10.9418
ide	-10.9418
裂	-10.9419
ee	-10.9419
短編	-10.9419
出来	-10.942
</	-10.942
の一部を	-10.9421
帰り	-10.9421
哨戒	-10.9422
ないまま	-10.9422
歳以上	-10.9422
マスク	-10.9423
を大きく	-10.9425
が起こる	-10.9425
みつ	-10.9425
つである	-10.9425
講座	-10.9427
されるが	-10.9427
、1968	-10.9428
セブン	-10.9428
が含まれる	-10.943
の評価	-10.943
併用	-10.9431
法的	-10.9432
車両の	-10.9433
属の	-10.9433
ハラ	-10.9434
駅は	-10.9436
bu	-10.9436
版は	-10.9437
翔	-10.9438
を守る	-10.9441
実用	-10.9442
プー	-10.9443
だけが	-10.9446
gm	-10.9447
ロマン	-10.945
、1971	-10.9452
炭素	-10.9452
既	-10.9453
に出場した	-10.9455
離れ	-10.9455
磁	-10.9455
現れた	-10.9455
公立	-10.9456
ブリー	-10.9457
脈	-10.9457
予約	-10.9459
ノート	-10.946
篠	-10.9462
実は	-10.9462
考え方	-10.9462
は大きく	-10.9463
表紙	-10.9465
事で	-10.9465
黄金	-10.9466
埋め	-10.9467
をベースに	-10.9468
とは別に	-10.947
戦う	-10.9471
▁1958	-10.9472
をきっかけに	-10.9473
運河	-10.9474
時間が	-10.9475
愛知	-10.9476
ニコ	-10.9479
経過	-10.948
駅まで	-10.948
が生じ	-10.9481
されているが	-10.9481
の監督	-10.9484
もこの	-10.9484
されたため	-10.9484
翌年の	-10.9485
結論	-10.9486
裁	-10.9487
以下のように	-10.9487
電化	-10.9488
時期に	-10.9488
共同体	-10.9489
に敗れ	-10.9491
を得	-10.9491
した際	-10.9491
もん	-10.9492
慶長	-10.9492
基本的に	-10.9494
及	-10.9494
いわ	-10.9496
ギャ	-10.9496
ンス	-10.9498
は全く	-10.9502
傍ら	-10.9504
最古の	-10.9505
謙	-10.9506
の権利	-10.951
査	-10.9511
にも関わらず	-10.9512
ner	-10.9513
イスラーム	-10.9513
▁bo	-10.9513
付近の	-10.9514
自由に	-10.9515
神宮	-10.9515
歌舞伎	-10.9516
方の	-10.9516
スロー	-10.9517
生じる	-10.9518
▁ドイツ	-10.9518
ドラゴン	-10.9519
鎮圧	-10.9519
の際には	-10.952
カナダの	-10.952
▁いずれも	-10.9525
発注	-10.9526
士官	-10.9528
試合に出場し	-10.9529
易	-10.9531
▁jr	-10.9533
評判	-10.9534
かれた	-10.9535
当初から	-10.9537
操	-10.9538
訴え	-10.9541
そうした	-10.9542
坪	-10.9542
の支援	-10.9544
殺し	-10.9544
北東部	-10.9545
サイクル	-10.9548
に所属し	-10.9548
内には	-10.9549
期生	-10.955
興味	-10.9551
置き換え	-10.9552
キリスト	-10.9552
ハリウッド	-10.9552
衆議院	-10.9552
ボーナス	-10.9553
ース	-10.9554
渡し	-10.9557
推	-10.9558
アラブ	-10.9558
大きさ	-10.9559
消え	-10.9565
期間は	-10.9566
ことが出来る	-10.9569
近年	-10.9569
鈴	-10.9572
ベリ	-10.9573
正確な	-10.9574
勃発	-10.9574
でもあり	-10.9576
年時点で	-10.9577
09	-10.9577
1900	-10.9578
の普及	-10.9578
を投げ	-10.958
隻の	-10.958
▁アル	-10.9582
▁1946	-10.9584
屈	-10.9584
さくら	-10.9586
楽章	-10.9587
派生	-10.9588
に気	-10.9588
ゼー	-10.959
それ以外の	-10.9591
gu	-10.9592
保安	-10.9593
施	-10.9593
乗員	-10.9593
グラス	-10.9594
リゾート	-10.9596
二丁目	-10.9601
という名前	-10.9602
返し	-10.9602
三角	-10.9603
は不明である	-10.9604
依	-10.9605
1/	-10.9605
と対戦	-10.9607
1901	-10.9608
合唱	-10.961
重力	-10.9611
置き	-10.9613
長編	-10.9615
独自	-10.9616
役の	-10.9617
の最終	-10.9618
増え	-10.9618
電圧	-10.9618
三島	-10.9621
フランス軍	-10.9622
編集者	-10.9623
ビュ	-10.9625
の向上	-10.9627
1898	-10.9631
締め	-10.9632
モバイル	-10.9632
怪	-10.9634
res	-10.9635
ct	-10.9636
書かれている	-10.9637
続いて	-10.9639
キャプテン	-10.9641
日をもって	-10.9642
汚染	-10.9645
鳳	-10.9646
医薬品	-10.9647
乙	-10.9647
戦国時代	-10.9648
ループ	-10.9652
を集め	-10.9652
的である	-10.9653
保健	-10.9653
中川	-10.9655
テレビ東京	-10.9655
マドリード	-10.9657
町村	-10.9659
たという	-10.9661
が続いた	-10.9661
るもの	-10.9662
総会	-10.9664
の座	-10.9665
賛成	-10.9666
調理	-10.967
▁1956	-10.9673
▁1939	-10.9676
▁本名	-10.9677
すぎ	-10.9678
青森	-10.9678
▁ro	-10.9679
ther	-10.9679
パーツ	-10.968
木造	-10.9682
ブライアン	-10.9682
ファル	-10.9686
が用いられる	-10.9689
cg	-10.9689
トレード	-10.9691
の管理	-10.9691
ica	-10.9693
の孫	-10.9693
とても	-10.9694
盛り	-10.9697
は後に	-10.9698
毎回	-10.9698
に本社を置く	-10.9699
が可能である	-10.9699
山岳	-10.97
英語で	-10.97
戒	-10.9701
上げる	-10.9703
以来の	-10.9704
グラウンド	-10.9705
新作	-10.9705
を搭載した	-10.9706
に立ち	-10.9709
大幅に	-10.971
年末	-10.9711
の技術	-10.9711
ntt	-10.9712
看板	-10.9712
などにより	-10.9714
は存在しない	-10.9715
アメリカで	-10.9718
いう	-10.9719
両者	-10.972
が生まれた	-10.9723
出る	-10.9724
妨害	-10.9724
出席	-10.9725
侵略	-10.9726
早期	-10.9726
の内	-10.9727
▁1955	-10.9729
が現れ	-10.973
の設立	-10.9733
大量	-10.9733
海賊	-10.9733
博多	-10.9735
レビュー	-10.9736
を開始する	-10.9737
氏が	-10.9737
造船所	-10.9738
▁ba	-10.9739
yo	-10.9739
境界	-10.9739
ッパ	-10.9741
周囲の	-10.9743
大使館	-10.9746
瓦	-10.9746
飲み	-10.9747
1962	-10.9747
国内で	-10.9748
and	-10.9748
単独で	-10.9749
成果	-10.9749
▁1948	-10.975
備	-10.9752
助け	-10.9753
シード	-10.9753
信長	-10.9754
▁love	-10.9754
使用された	-10.9755
イズ	-10.9759
クタ	-10.9759
無限	-10.9761
めい	-10.9762
和歌山県	-10.9763
夫の	-10.9763
郡内	-10.9765
月下旬	-10.9771
men	-10.9771
セントラル	-10.9772
為に	-10.9772
得る	-10.9775
マグ	-10.9776
ate	-10.9776
▁ex	-10.9777
受け入れ	-10.9778
添	-10.9778
を求めて	-10.9779
を実施	-10.9779
伊達	-10.9782
大尉	-10.9783
が特徴	-10.9784
扇	-10.9785
戦時	-10.9785
描いた	-10.9788
モハ	-10.9791
垂	-10.9792
大公	-10.9794
音楽院	-10.9795
西方	-10.9797
を置く	-10.9799
わら	-10.9799
用いられる	-10.9799
着用	-10.98
ea	-10.98
徒歩	-10.9801
増大	-10.9804
ものではない	-10.9807
景観	-10.9809
集会	-10.981
落語	-10.9811
感謝	-10.9812
取り組み	-10.9813
審判	-10.9815
島に	-10.9815
捜索	-10.9815
復元	-10.9817
レッ	-10.9817
講演	-10.9819
愛媛県	-10.9819
で第	-10.9819
fifa	-10.9821
郡は	-10.9822
壊滅	-10.9822
ピンク	-10.9823
、1969	-10.9824
ブリッジ	-10.9824
の長男	-10.9825
記す	-10.9825
数百	-10.9826
入院	-10.9827
辞任	-10.9828
内では	-10.9829
享	-10.9829
mk	-10.9829
飾り	-10.9829
下記	-10.9833
1963	-10.9833
人々が	-10.9834
代表取締役社長	-10.9837
斎藤	-10.984
提唱	-10.984
04	-10.9842
抑制	-10.9842
牧場	-10.9845
並べ	-10.9845
とりわけ	-10.9846
サウルス	-10.9846
三浦	-10.9847
鎌倉時代	-10.9847
ブロー	-10.9847
気筒	-10.9849
実況	-10.985
pv	-10.9852
司令	-10.9852
さと	-10.9853
を起こした	-10.9855
猪	-10.9856
形は	-10.9857
固有	-10.9857
▁ここでは	-10.9858
来た	-10.9859
近世	-10.9862
性が	-10.9862
依存	-10.9864
ase	-10.9864
己	-10.9865
物の	-10.9865
ぐん	-10.9866
江戸時代	-10.9867
心理学	-10.9868
▁この間	-10.9869
出して	-10.987
原子力	-10.9871
範	-10.9876
力が	-10.9878
を発表し	-10.9878
国防	-10.9879
月からは	-10.9879
判事	-10.9879
省略	-10.988
水域	-10.9881
に至るまで	-10.9883
ブレイ	-10.9883
年頃に	-10.9884
偶然	-10.9884
つける	-10.9884
-18	-10.9887
移管	-10.9887
パーセント	-10.9888
加賀	-10.989
人員	-10.989
の範囲	-10.9892
選考	-10.9894
は不明	-10.9894
の主	-10.9895
じゃ	-10.9895
ガリ	-10.9896
烈	-10.9899
大学名誉教授	-10.9899
高架	-10.9899
の設定	-10.99
han	-10.9903
har	-10.9904
性的	-10.9904
含	-10.9904
の指揮	-10.9906
ダイヤ	-10.9907
で放送されていた	-10.9908
同名の	-10.9909
ここに	-10.991
とおり	-10.9912
カタ	-10.9913
恭	-10.9915
ことができた	-10.9915
に出場し	-10.9917
▁is	-10.9918
次のような	-10.9922
にあたって	-10.9923
カリフォルニア	-10.9923
に帰	-10.9925
狭い	-10.9925
を備えた	-10.9929
予防	-10.993
メダル	-10.9931
曲を	-10.9934
を立ち上げ	-10.9935
打者	-10.9937
、1964	-10.9938
▁[	-10.9938
適切な	-10.9939
名称は	-10.9941
かし	-10.9941
ぜん	-10.9943
に昇格	-10.9944
隔	-10.9945
青山	-10.9948
が運営する	-10.995
首位	-10.9954
ことも多い	-10.9955
戦前	-10.9956
表彰	-10.9957
以前から	-10.9959
▁現在では	-10.996
フォール	-10.9961
he	-10.9963
人口約	-10.9965
催	-10.9965
は同	-10.9965
導入された	-10.9966
|	-10.9966
メアリー	-10.9969
レーション	-10.9969
スラ	-10.9969
後述の	-10.9972
8%	-10.9974
レク	-10.9978
艦艇	-10.9978
香川県	-10.9978
染	-10.9983
が存在した	-10.9983
1896	-10.9984
決して	-10.9985
示唆	-10.9986
ロケ	-10.9987
ブロン	-10.9988
▁ゲーム	-10.9988
立法	-10.9989
認め	-10.999
不可	-10.999
国立公園	-10.9993
法令	-10.9995
ラジ	-10.9995
を決める	-10.9998
悪い	-10.9998
ひら	-11.0001
徳島県	-11.0001
1921	-11.0003
方に	-11.0004
▁まず	-11.0004
拘束	-11.0004
誕生した	-11.0006
エディ	-11.0007
ufc	-11.0011
競合	-11.0011
ニューヨーク州	-11.0011
靴	-11.0011
を失い	-11.0013
局の	-11.0013
教区	-11.0013
妊娠	-11.0013
爆撃機	-11.0014
ルズ	-11.0016
日中	-11.0018
放射	-11.0019
度々	-11.0028
駆	-11.0028
正教会	-11.0028
形成された	-11.0028
中心部	-11.003
レーザー	-11.003
しつつ	-11.003
4%	-11.0031
合衆国	-11.0032
を歴任	-11.0033
熟	-11.0033
死刑	-11.0035
過程で	-11.0036
架	-11.0036
てる	-11.0038
反射	-11.0039
クイーン	-11.0039
われる	-11.004
イチ	-11.0042
に出演した	-11.0044
番地	-11.0045
山下	-11.0046
土佐	-11.0046
暮らし	-11.0048
主人公の	-11.0054
▁1954	-11.0054
ちゅうがっこう	-11.0055
佐賀	-11.0055
ッコ	-11.0055
道を	-11.0056
消費者	-11.0056
の経営	-11.0059
逃亡	-11.0059
チェック	-11.006
マツ	-11.0061
の構造	-11.0063
ていること	-11.0063
雌	-11.0063
世に	-11.0063
南極	-11.0063
金を	-11.0064
届け	-11.0065
各社	-11.0065
▁na	-11.0065
妻の	-11.0066
充実	-11.0067
本拠地	-11.0068
甲子園	-11.0069
高校時代	-11.0071
怒	-11.0075
出店	-11.0075
日本における	-11.0075
ポケモン	-11.0076
石井	-11.0076
同国	-11.0077
を立て	-11.0078
みず	-11.0079
年連続で	-11.0079
abc	-11.0079
を見せた	-11.0079
サーバ	-11.008
南西部	-11.0081
を設立した	-11.0082
mr	-11.0083
女神	-11.0083
アリス	-11.0083
後継	-11.0085
と考えた	-11.0086
格闘	-11.0086
回答	-11.0086
▁オ	-11.0087
定められた	-11.0087
脅威	-11.0092
検証	-11.0093
の記述	-11.0093
ギル	-11.0095
エンジンは	-11.0095
1897	-11.0097
種牡馬	-11.0099
)、「	-11.0099
上記	-11.01
仕事を	-11.0103
直前	-11.0105
日曜日	-11.0105
していなかった	-11.0105
ギタリスト	-11.0106
踏み	-11.0107
02	-11.0107
融	-11.0108
はいずれも	-11.0109
選手が	-11.0111
概	-11.0111
瞬間	-11.0111
を有し	-11.0112
書記	-11.0113
ライヴ	-11.0114
トニー	-11.0116
ミュー	-11.0117
春日	-11.0117
党の	-11.0117
スペインの	-11.0118
act	-11.0118
が収録されている	-11.0119
▁1949	-11.0119
に改名	-11.0119
1899	-11.0119
版が	-11.012
等を	-11.0122
168	-11.0122
隣接	-11.0122
の試合	-11.0123
が非常に	-11.0125
牧師	-11.0128
に進出	-11.013
▁go	-11.0131
ハーフ	-11.0135
短く	-11.0136
餌	-11.0137
結果的に	-11.014
live	-11.014
▁大阪	-11.014
併せて	-11.0142
の力	-11.0142
の不	-11.0143
▁天正	-11.0143
はその後	-11.0145
は基本的に	-11.0147
明け	-11.0148
広報	-11.0148
部隊の	-11.015
天使	-11.0152
pt	-11.0152
磁気	-11.0156
ウルトラ	-11.0156
β	-11.0156
概ね	-11.0157
カーブ	-11.0158
1946	-11.0159
る事	-11.016
改編	-11.016
ーム	-11.0164
盗塁	-11.0164
携帯	-11.0165
果実	-11.0165
出生	-11.0167
増加した	-11.0167
うちに	-11.0168
欄	-11.0169
待ち	-11.0169
キム	-11.0169
教養	-11.0169
ないと	-11.0171
を掲げ	-11.0173
返す	-11.0173
鶏	-11.0175
フットボール	-11.0175
水戸	-11.0175
の南	-11.0177
専属	-11.0177
時刻	-11.0179
文化財	-11.0181
ラフ	-11.0183
利用される	-11.0183
07	-11.0183
fl	-11.0183
、1967	-11.0184
そば	-11.0184
本国	-11.0187
レーシング	-11.0187
実家	-11.0188
現状	-11.0188
巧	-11.0189
二郎	-11.0191
にちなんで	-11.0191
一丁目	-11.0191
の方	-11.0193
dy	-11.0193
を挙げ	-11.0193
ペース	-11.0194
▁1952	-11.02
はさらに	-11.02
がなされた	-11.02
トマス	-11.0201
壊	-11.0202
主として	-11.0203
を抱え	-11.0205
ang	-11.0206
授	-11.0206
抑え	-11.0209
南米	-11.0209
偵察	-11.0211
投与	-11.0213
劇場版	-11.0214
を加え	-11.0215
大いに	-11.0218
市街	-11.0218
涙	-11.0219
を使用し	-11.022
政府が	-11.0221
を継続	-11.0222
仕組み	-11.0222
喪失	-11.0226
無い	-11.0226
1914	-11.0231
セス	-11.0233
与えられる	-11.0233
の政治家	-11.0233
話し	-11.0235
プリンス	-11.0235
階建て	-11.0237
取った	-11.0238
コミュニケーション	-11.0239
科学者	-11.0239
砲兵	-11.024
一般の	-11.024
強度	-11.0241
人々の	-11.0241
種子	-11.0242
マスコミ	-11.0243
冷却	-11.0245
るか	-11.0247
テキスト	-11.0251
とされていた	-11.0254
ガイド	-11.0254
終わった	-11.0256
ぷ	-11.0257
も見られる	-11.0258
▁第二次世界大戦	-11.0263
を流れる	-11.0263
こととなる	-11.0264
万枚	-11.0265
開局	-11.0265
を採用し	-11.0266
と同一	-11.0267
たけ	-11.0267
称号	-11.0269
関連の	-11.0269
の花	-11.0269
ボルト	-11.0269
が増え	-11.0273
▁カ	-11.0273
公社	-11.0274
熊野	-11.0275
たのは	-11.0278
ッパー	-11.0278
事実上の	-11.0278
使われていた	-11.0279
つもり	-11.028
7%	-11.028
▁1953	-11.028
職人	-11.0283
世界遺産	-11.0283
、1965	-11.0283
もいる	-11.0285
損失	-11.0285
ヴォー	-11.0285
仮面ライダー	-11.0285
享保	-11.0287
でありながら	-11.0287
登場し	-11.0287
貨幣	-11.0287
のシングル	-11.0287
溶	-11.0288
の差	-11.0289
爵位	-11.029
逸	-11.029
垂直	-11.0291
大戦	-11.0294
正義	-11.0294
怪獣	-11.0296
番人気	-11.0296
販売されている	-11.0301
を使用して	-11.0303
東日本大震災	-11.0303
していること	-11.0304
債務	-11.0306
有限	-11.0306
に登場した	-11.0307
に敗れた	-11.0308
星の	-11.0309
付加	-11.031
半ば	-11.031
満足	-11.031
年代後半	-11.0314
測	-11.0315
クラスの	-11.0316
所長	-11.0317
▁1957	-11.0318
の路線	-11.0319
ウェールズ	-11.0319
が出た	-11.0321
の諸	-11.0325
野菜	-11.0326
白色	-11.0327
平行	-11.0329
老朽化	-11.0329
蒸気	-11.0331
桐	-11.0333
トリー	-11.0333
を呼び	-11.0334
をかけて	-11.0337
亡	-11.0341
透明	-11.0342
曾	-11.0342
家が	-11.0343
次いで	-11.0343
レア	-11.0345
調達	-11.0347
甲斐	-11.0347
珍	-11.0349
逮捕された	-11.035
と称する	-11.0352
丈	-11.0353
制約	-11.0353
違法	-11.0354
都合	-11.0355
と表記	-11.0356
所有者	-11.0361
学年	-11.0361
を押し	-11.0361
二軍	-11.0365
死ぬ	-11.0365
地域に	-11.0365
技師	-11.037
1920	-11.0371
シュート	-11.0372
cr	-11.0374
スクリーン	-11.0376
切る	-11.0377
を発見した	-11.0378
福井県	-11.0379
かかった	-11.038
インドの	-11.0381
の総	-11.0383
田町	-11.0384
の一覧	-11.0385
建造物	-11.0386
のタイトル	-11.0386
1943	-11.0388
本町	-11.0388
トール	-11.0389
野田	-11.0389
同作	-11.0389
の約	-11.0391
タリ	-11.0393
だけではなく	-11.0393
ソビエト	-11.0394
路線バス	-11.0398
盆地	-11.0398
弱い	-11.0399
中学生	-11.0401
法第	-11.0401
総務	-11.0403
篤	-11.0405
年ぶり	-11.0405
と考える	-11.0406
並み	-11.0406
1917	-11.0406
伝達	-11.0407
新設された	-11.0407
アマ	-11.0407
すべく	-11.0407
尉	-11.0408
の代わりに	-11.0409
南アフリカ	-11.0411
識	-11.0411
スペイン語	-11.0412
認められ	-11.0413
1947	-11.0413
たら	-11.0415
▁1937	-11.0416
神の	-11.0416
パーティー	-11.0417
燃焼	-11.0418
市と	-11.0418
函数	-11.0419
が始まる	-11.0419
モント	-11.042
が担当	-11.0421
ベクトル	-11.0422
虐殺	-11.0423
市役所	-11.0424
まさ	-11.0426
子と	-11.0426
▁アメリカ合衆国	-11.0427
ard	-11.0427
に登場	-11.0427
燕	-11.0428
引っ	-11.043
土木	-11.0431
line	-11.0433
線の駅である	-11.0433
うまく	-11.0434
不良	-11.0438
稀	-11.044
住所	-11.0441
の人気	-11.0442
稼働	-11.0443
est	-11.0444
を考える	-11.0444
抜	-11.0445
our	-11.0446
の立場	-11.0448
iso	-11.0451
永禄	-11.0454
パッ	-11.0455
rc	-11.0456
プロテスタント	-11.0457
ぞう	-11.0458
兄の	-11.0458
フォース	-11.0459
の種類	-11.0459
土壌	-11.046
最高位	-11.0462
を開催	-11.0463
コント	-11.0463
cf	-11.0464
ません	-11.0466
ライダー	-11.0467
排除	-11.0468
に続いて	-11.0469
日本でも	-11.0471
祥	-11.0471
小松	-11.0472
ナム	-11.0474
見方	-11.0474
ファンタジー	-11.0476
ハリ	-11.0477
の住民	-11.0478
のほかに	-11.0478
裸	-11.048
クレー	-11.0481
する際に	-11.0482
158	-11.0483
1912	-11.0484
トリオ	-11.0484
売れ	-11.0485
red	-11.0485
慶応	-11.0485
横断	-11.0486
双方	-11.0487
県にある	-11.0489
支流	-11.049
bgm	-11.0492
に転じ	-11.0492
ゲージ	-11.0495
ピエール	-11.0496
用いる	-11.0497
てから	-11.05
リム	-11.0501
に使われる	-11.0501
体育館	-11.0502
ぜ	-11.0503
はアメリカ	-11.051
長岡	-11.051
できるように	-11.051
ひとつ	-11.051
に転	-11.051
1942	-11.0511
メリ	-11.0511
東芝	-11.0511
芸術家	-11.0513
を訪れた	-11.0513
類の	-11.0514
に似た	-11.0514
モンテ	-11.0515
要件	-11.0516
主題歌	-11.0517
兵力	-11.0519
優勝を果たした	-11.0521
今まで	-11.0521
が入る	-11.0521
新しく	-11.0523
子孫	-11.0523
が描かれている	-11.0524
アウ	-11.0527
設置された	-11.0529
cp	-11.0533
が設置され	-11.0533
母音	-11.0534
世と	-11.0534
県立	-11.0535
天保	-11.0535
秘書	-11.0537
rom	-11.0538
起訴	-11.0539
小説家	-11.054
豊田	-11.0543
の後継	-11.0544
テキサス	-11.0545
槍	-11.0546
使用した	-11.0546
ノル	-11.0547
ical	-11.0547
狼	-11.0548
175	-11.055
かる	-11.055
少佐	-11.055
1871	-11.0551
すこと	-11.0551
安政	-11.0552
ダニエル	-11.0552
は当時	-11.0554
横浜市	-11.0555
▁今	-11.0556
聞き	-11.0557
連載された	-11.0559
取られ	-11.0561
1941	-11.0562
誘	-11.0563
定員	-11.0563
1910	-11.0564
万石	-11.0564
関係の	-11.0565
頂点	-11.0566
疑い	-11.0567
ハンド	-11.0567
浦和	-11.0567
胤	-11.0567
に就任し	-11.0569
歳から	-11.0569
デビューした	-11.0572
157	-11.0573
ガーデン	-11.0574
次男	-11.0577
間隔	-11.0577
代行	-11.0577
を取得	-11.0578
改め	-11.0578
が起こり	-11.058
代数	-11.058
劣	-11.058
天井	-11.0581
6%	-11.0581
近隣	-11.0583
具体的な	-11.0584
経営者	-11.0586
ジング	-11.0586
汁	-11.0587
革	-11.0587
リバー	-11.0589
▁一般に	-11.0591
農村	-11.0592
研究科	-11.0592
たん	-11.0594
瓶	-11.0594
領地	-11.0595
徹底	-11.0595
用いられた	-11.0596
でなく	-11.0597
家老	-11.0599
かせ	-11.06
駅と	-11.0602
正確に	-11.0602
他社	-11.0605
折り	-11.0605
oc	-11.0607
石川県	-11.0607
部分が	-11.0609
選手権大会	-11.061
宮城	-11.0613
照明	-11.0614
スピ	-11.0616
去	-11.0616
を集めた	-11.0616
契約を結んだ	-11.0616
ならず	-11.0616
響	-11.0618
れない	-11.0618
を表明した	-11.0618
の平均	-11.0622
マンは	-11.0622
最上	-11.0622
分かれ	-11.0623
並ぶ	-11.0625
砲塔	-11.0625
ウィリアムズ	-11.0627
時間は	-11.0629
▁records	-11.063
遷	-11.0633
近畿	-11.0637
選挙で	-11.064
ボブ	-11.0641
返還	-11.0642
、1945	-11.0642
買い	-11.0642
トライ	-11.0642
零	-11.0644
ran	-11.0645
あくまで	-11.0647
作品で	-11.0647
ダーク	-11.0648
走る	-11.0649
駅である	-11.065
会談	-11.065
豊かな	-11.0651
使用される	-11.0652
みんな	-11.0653
阻止	-11.0654
たびたび	-11.0657
試作	-11.0659
世界観	-11.066
していたため	-11.066
同日	-11.066
上京	-11.066
討伐	-11.0662
はかつて	-11.0662
日の対	-11.0663
完結	-11.0663
リアル	-11.0664
の企画	-11.0665
前線	-11.0666
も参照	-11.0667
役で	-11.0668
述べる	-11.0668
編集長	-11.0669
を一	-11.0671
を基に	-11.0675
綾	-11.0675
タナ	-11.0676
ヴェネツィア	-11.0679
舌	-11.0679
03	-11.068
クーデター	-11.068
砂漠	-11.068
固め	-11.0683
ってくる	-11.0684
続けている	-11.0685
秀吉	-11.0687
のイメージ	-11.0687
大ヒット	-11.0688
ドイツ人	-11.0688
道場	-11.0689
繰り返し	-11.0691
don	-11.0692
port	-11.0693
自体が	-11.0695
トゥス	-11.0695
浮上	-11.0697
の支配	-11.0699
アシスタント	-11.0701
を組み	-11.0702
アメリカ人	-11.0703
大聖堂	-11.0704
すぎる	-11.0704
が出る	-11.0704
として活躍	-11.0704
成田	-11.0705
エム	-11.0705
臨床	-11.0709
年目の	-11.0709
ことと	-11.0711
に終わり	-11.0711
職務	-11.0713
ビーム	-11.0713
弾薬	-11.0713
0.5	-11.0714
ina	-11.0715
の基本	-11.072
台の	-11.072
関節	-11.0721
と語った	-11.0721
コンテナ	-11.0722
があるため	-11.0723
バリー	-11.0724
ヴィア	-11.0725
使者	-11.0725
の人口は	-11.0728
安全保障	-11.073
王立	-11.073
開館	-11.0731
作品が	-11.0733
スマートフォン	-11.0733
▁初代	-11.0734
映画館	-11.0734
にほん	-11.0736
1961	-11.0738
機は	-11.0739
させている	-11.0739
してから	-11.074
広がり	-11.0741
1880	-11.0742
1870	-11.0744
無効	-11.0744
声明	-11.0746
世紀から	-11.0748
選手の	-11.0749
旭	-11.075
全部	-11.0753
小学生	-11.0753
用として	-11.0754
有料	-11.0755
再放送	-11.0755
批評家	-11.0755
作品に	-11.0757
民主主義	-11.0757
が起こった	-11.076
公式に	-11.0761
ris	-11.0762
部が	-11.0762
登記	-11.0763
遣	-11.0763
事から	-11.0764
適応	-11.0765
習慣	-11.0765
触れ	-11.0766
をそれぞれ	-11.0767
の定義	-11.0769
ラック	-11.0772
かけて	-11.0772
号車	-11.0772
達が	-11.0774
済み	-11.0774
重賞	-11.0778
コンクリート	-11.0778
閲覧	-11.0779
350	-11.078
閣	-11.078
が困難	-11.0781
藤田	-11.0783
ワークス	-11.0784
まん	-11.0784
込まれた	-11.0784
唄	-11.0787
手掛け	-11.0787
太平洋戦争	-11.0788
したところ	-11.0788
人々は	-11.0788
いつも	-11.0791
近江	-11.0794
カ国	-11.0795
スタンド	-11.0796
りする	-11.0796
備え	-11.0798
陣営	-11.0799
した上で	-11.0801
辞職	-11.0802
識別	-11.0803
鷲	-11.0803
キハ	-11.0803
開催されている	-11.0804
られない	-11.0805
プレミアリーグ	-11.0805
徐	-11.0806
謝罪	-11.0806
土曜日	-11.0806
是	-11.0806
チャンス	-11.0808
界の	-11.0809
に挑戦	-11.0811
様に	-11.0811
大坂	-11.0812
アリーナ	-11.0812
ibm	-11.0813
テク	-11.0813
日本映画	-11.0814
を終えた	-11.0817
救出	-11.0817
それ以前	-11.0818
社は	-11.0818
落下	-11.0818
ペリ	-11.082
の運用	-11.082
水中	-11.082
突き	-11.0821
バラエティ番組	-11.0821
の土地	-11.0821
敵対	-11.0821
den	-11.0824
を演じた	-11.0824
で敗れた	-11.0827
検定	-11.0828
の大半	-11.0831
日米	-11.0833
まえ	-11.0835
次のように	-11.0836
わる	-11.0837
ショット	-11.0837
加えられ	-11.084
降板	-11.084
立つ	-11.0841
出て	-11.0843
qui	-11.0843
参謀	-11.0846
麗	-11.0848
丘陵	-11.0848
スポ	-11.0849
アドレス	-11.0849
に分かれ	-11.0851
未満	-11.0855
ッキング	-11.0856
これも	-11.0857
の規定	-11.0858
に掲載された	-11.0859
の要素	-11.0861
かかる	-11.0862
ドリー	-11.0863
商店	-11.0865
麓	-11.0865
見られる	-11.0865
max	-11.0866
アシスト	-11.0868
緩	-11.0869
▁略称は	-11.0869
リトル	-11.0869
残された	-11.087
cpu	-11.087
出身者	-11.0872
哉	-11.0873
アイランド	-11.0873
これまでの	-11.0874
ボウ	-11.0875
神殿	-11.0875
を搭載し	-11.0879
肝	-11.088
レオン	-11.088
の建物	-11.0881
1895	-11.0881
イラ	-11.0881
と結婚し	-11.0883
運命	-11.0885
を上げ	-11.0886
シカ	-11.0886
陸上競技	-11.0887
準決勝で	-11.0893
浅草	-11.0894
▁1938	-11.0897
もあったが	-11.0898
右翼	-11.09
規模の	-11.0901
水上	-11.0901
159	-11.0902
のライブ	-11.0902
ラッ	-11.0905
を唱え	-11.0906
対空	-11.0908
を切り	-11.0908
川町	-11.0909
足利	-11.0911
信者	-11.0911
日野	-11.0914
仮名	-11.0914
場合が多い	-11.0915
の愛称	-11.0917
兆	-11.0918
ミナ	-11.0918
精度	-11.0918
対処	-11.0919
を下	-11.0919
に進学	-11.0919
移行	-11.0919
不要	-11.0921
▁1951	-11.0922
考慮	-11.0923
革新	-11.0923
テール	-11.0923
ニューヨーク市	-11.0924
じょ	-11.0926
の戦闘	-11.0926
タケ	-11.0926
が決定した	-11.0929
を採用している	-11.093
枚目	-11.093
と比べて	-11.0932
索	-11.0934
的なもの	-11.0934
全身	-11.0936
いずれ	-11.0936
9%	-11.0941
獄	-11.0942
カレ	-11.0942
▁ar	-11.0943
流入	-11.0943
参加している	-11.0944
反撃	-11.0944
仮説	-11.0946
サス	-11.0948
海軍の	-11.0949
放送されていた	-11.0949
実質的に	-11.095
個々の	-11.0955
激しく	-11.0955
倫理	-11.0956
墨	-11.0958
文学部	-11.096
最初は	-11.096
の墓	-11.096
に協力	-11.0961
就航	-11.0962
カナ	-11.0963
挙げられ	-11.0964
やって	-11.0964
倉庫	-11.0964
を行って	-11.0964
評議会	-11.0964
語っている	-11.0965
グレード	-11.0967
sha	-11.0968
を図った	-11.0968
城を	-11.0972
元素	-11.0974
小田原	-11.0975
海底	-11.0978
皇太子	-11.0978
部分を	-11.0978
倒れ	-11.098
幾	-11.0982
ロマ	-11.0982
騎乗	-11.0983
しかった	-11.0983
神奈川	-11.0986
afc	-11.0987
で初	-11.0989
人口の	-11.0989
sion	-11.0989
駆逐隊	-11.0989
美濃	-11.099
ind	-11.0991
セッション	-11.0992
地獄	-11.0993
成功した	-11.0993
争	-11.0995
世界で	-11.0996
袖	-11.0997
を続ける	-11.0998
水を	-11.0999
は既に	-11.1001
、1966	-11.1002
鐘	-11.1003
3,000	-11.1003
農家	-11.1004
リヤ	-11.1004
▁we	-11.1005
データベース	-11.1005
邪	-11.1006
態	-11.1006
突破	-11.1006
力士	-11.1006
ah	-11.1007
je	-11.1007
を超え	-11.1007
に引き	-11.1008
およびその	-11.1008
▁1936	-11.101
抱	-11.1012
というもの	-11.1015
ボロ	-11.1017
▁以前は	-11.1017
テキサス州	-11.1017
ズム	-11.1022
と比較して	-11.1022
に追い	-11.1023
信用	-11.1023
ターボ	-11.1024
視聴	-11.1024
ワル	-11.1027
心の	-11.1028
しろ	-11.103
バイク	-11.1031
甲府	-11.1031
高知	-11.1032
震	-11.1032
描かれた	-11.1033
bb	-11.1033
市販	-11.1033
バス停	-11.1038
の可能性	-11.1039
収録曲	-11.1039
戦後の	-11.1042
体操	-11.1043
方法で	-11.1043
番目	-11.1043
もし	-11.1044
の目	-11.1044
角度	-11.1045
ure	-11.1045
芝居	-11.1049
放送される	-11.1049
野党	-11.1049
発生した	-11.1051
和解	-11.1054
vol	-11.1054
食料	-11.1054
修了	-11.1055
出身で	-11.1056
大型の	-11.1059
生まれた	-11.106
消	-11.1061
の拡大	-11.1061
墜落	-11.1062
セリエ	-11.1062
ボーン	-11.1062
最小	-11.1063
下位	-11.1063
演習	-11.1063
開催される	-11.1063
はイギリス	-11.1064
john	-11.1065
失点	-11.1066
ダス	-11.1067
影響を受けた	-11.1068
hot	-11.1068
和歌山	-11.107
は比較的	-11.1073
拠	-11.1075
広大な	-11.1077
級の	-11.1077
歌い	-11.1077
▁mm	-11.1078
が残っている	-11.1078
1948	-11.108
の一部が	-11.108
をとった	-11.1083
king	-11.1085
カトリック教会	-11.1085
車両は	-11.1086
創業者	-11.1087
最近	-11.1088
姿を	-11.1088
青春	-11.1089
大学大学院	-11.109
出場機会	-11.1092
ヴィチ	-11.1093
タラ	-11.1095
電流	-11.1097
北条	-11.1097
マニ	-11.1098
少数	-11.1099
傍	-11.1099
警告	-11.1104
グローバル	-11.1107
隠れ	-11.1108
こちら	-11.1109
マーティン	-11.1109
必ずしも	-11.111
神田	-11.111
2.0	-11.111
んじ	-11.111
リレー	-11.1113
のとき	-11.1113
の多くが	-11.1113
らと共に	-11.1115
なのか	-11.1115
1958	-11.1116
外見	-11.1117
詳細	-11.1117
セカンド	-11.1118
タキ	-11.1118
▁映画	-11.112
人から	-11.112
楼	-11.112
3.5	-11.1124
頃には	-11.1125
06	-11.1126
技能	-11.1126
記載されている	-11.1127
造り	-11.1127
の実	-11.1127
されておらず	-11.1128
勘	-11.113
見え	-11.113
補佐	-11.1133
招集	-11.1133
収益	-11.1135
の勝利	-11.1135
ことができ	-11.1136
twitter	-11.1136
を収録した	-11.1138
肉体	-11.1139
の発売	-11.1141
タム	-11.1141
ジェン	-11.1142
候	-11.1143
にそれぞれ	-11.1143
イア	-11.1143
連合会	-11.1144
ron	-11.1144
の一員	-11.1145
三井	-11.1148
隠居	-11.1148
産の	-11.1149
トゥル	-11.1152
レディ	-11.1152
リーナ	-11.1153
覆	-11.1154
しているため	-11.1154
大量に	-11.1154
を変え	-11.1155
ユニオン	-11.1155
前回	-11.1157
禄	-11.1158
心臓	-11.1158
ロシア語	-11.1161
小山	-11.1162
の初	-11.1163
与えられた	-11.1163
海戦	-11.1163
ダイヤモンド	-11.1163
リウム	-11.1163
推測	-11.1163
スが	-11.1165
カウ	-11.1166
の木	-11.1166
相手に	-11.1168
分間	-11.1168
トラン	-11.1168
られており	-11.1169
異なり	-11.1169
歌う	-11.1169
東南アジア	-11.1175
をつけ	-11.1175
付ける	-11.1177
電池	-11.1178
und	-11.1183
経済的	-11.1183
cal	-11.1184
は少ない	-11.1184
南東部	-11.1189
1913	-11.1191
は各	-11.1192
繁栄	-11.1193
三木	-11.1193
排	-11.1194
ベア	-11.1195
ことによる	-11.1199
way	-11.1199
北軍	-11.12
三国	-11.1202
にあって	-11.1202
以上に	-11.1204
▁愛称は	-11.1205
発信	-11.1205
アーサー	-11.1207
オリンピックの	-11.1207
京都市	-11.1207
書店	-11.1207
もともと	-11.1208
間は	-11.1208
法廷	-11.1209
終盤	-11.121
削	-11.121
▁su	-11.121
1955	-11.1211
а	-11.1211
区画	-11.1212
に出る	-11.1214
として知られている	-11.1214
労働組合	-11.1216
日本国内で	-11.1217
摂取	-11.1217
コーン	-11.1219
大島	-11.1221
会合	-11.1222
ピット	-11.1223
どちらも	-11.1224
航空会社	-11.1224
、1947	-11.1224
貧	-11.1224
ミラノ	-11.1225
を残す	-11.1227
と改称	-11.1229
fer	-11.1229
アンナ	-11.123
遠く	-11.123
出場し	-11.1231
流出	-11.1231
の世帯数と人口は以下の通りである	-11.1232
出典	-11.1233
lin	-11.1233
の発生	-11.1234
不振	-11.1234
福田	-11.1235
-11	-11.1236
本店	-11.1236
はず	-11.1236
が開発した	-11.1237
せき	-11.1238
、1963	-11.1238
ッセ	-11.1239
アメリカでは	-11.124
ary	-11.1241
彼に	-11.1241
後藤	-11.1243
ova	-11.1244
葬儀	-11.1244
解雇	-11.1246
認証	-11.1247
経歴	-11.1248
藩士	-11.1248
の距離	-11.1249
代表の	-11.1249
毎週	-11.125
捧げ	-11.1251
ロッテ	-11.1253
渓	-11.1253
単なる	-11.1254
の両	-11.1254
イド	-11.1255
出雲	-11.1255
▁with	-11.1258
の計	-11.1261
三河	-11.1261
老人	-11.1262
に生まれ	-11.1262
動詞	-11.1263
mor	-11.1263
年春	-11.1263
椎	-11.1264
京阪	-11.1265
を目指して	-11.1267
障害者	-11.1268
増強	-11.1269
替	-11.1269
初優勝	-11.127
新聞社	-11.1271
敵の	-11.1271
が生じる	-11.1272
yu	-11.1276
煮	-11.1279
物体	-11.128
点は	-11.128
次に	-11.1284
サウ	-11.1284
アンダー	-11.1284
知名度	-11.1286
見える	-11.1286
ひとり	-11.1286
ているため	-11.1287
麦	-11.1287
なくても	-11.1287
ーヌ	-11.1288
探	-11.1288
rna	-11.1292
プロセッサ	-11.1292
さらには	-11.1292
内にある	-11.1296
たものの	-11.1297
位相	-11.13
1949	-11.13
メートルの	-11.1302
近代化	-11.1302
未だ	-11.1303
マウス	-11.1304
ペルー	-11.1308
3-0	-11.1309
リカ	-11.1311
ザクセン	-11.1312
の機能	-11.1312
法を	-11.1316
福山	-11.1317
開幕戦	-11.1317
クラーク	-11.1317
経由で	-11.1317
連合国	-11.1317
死体	-11.1318
異なっている	-11.132
が最も	-11.1321
ジル	-11.1321
機関銃	-11.1321
af	-11.1323
もあるが	-11.1324
を決め	-11.1324
実質	-11.1327
優位	-11.1327
オオ	-11.1328
活性	-11.133
こともできる	-11.133
作風	-11.1331
の主要な	-11.1331
に立つ	-11.1331
スケート	-11.1332
nu	-11.1333
1911	-11.1334
おい	-11.1335
これらは	-11.1336
置かれ	-11.1336
手で	-11.1336
-16	-11.1339
食べる	-11.1339
犠牲	-11.1343
在学中	-11.1343
嫁	-11.1343
外務省	-11.1346
jp	-11.1348
fu	-11.1349
中東	-11.1351
以後は	-11.1352
の東	-11.1354
廻	-11.1355
が開発	-11.1355
期には	-11.1355
相模	-11.1355
多様な	-11.1356
の伝統	-11.1357
塊	-11.1358
しかし	-11.1358
を伴う	-11.1358
木材	-11.1358
の公式	-11.1359
皇子	-11.1361
するとともに	-11.1361
埼玉	-11.1362
を挟んで	-11.1363
を離れ	-11.1364
盛岡	-11.1366
情勢	-11.1367
代表取締役	-11.1368
著しく	-11.137
主演の	-11.137
1959	-11.1371
最後まで	-11.1372
島津	-11.1374
出品	-11.1374
ハウゼン	-11.1375
信濃	-11.1375
自衛隊	-11.1376
没した	-11.1377
を介して	-11.1382
戦争の	-11.1383
メジャーデビュー	-11.1385
oh	-11.1386
市域	-11.1387
塗	-11.1388
党首	-11.1388
基金	-11.1388
の記事	-11.139
参加した	-11.1392
倶楽部	-11.1393
部分に	-11.1394
の支持	-11.1397
るまで	-11.1399
随	-11.1399
らとともに	-11.1401
のもとに	-11.1401
因子	-11.1403
ーネ	-11.1403
門下	-11.1403
就職	-11.1403
nc	-11.1403
ボイ	-11.1405
叙	-11.1408
妖怪	-11.1408
マンガ	-11.141
人の基礎自治体	-11.1411
厳しく	-11.1412
に指定された	-11.1413
top	-11.1413
を目的として	-11.1414
等が	-11.1415
特撮	-11.1415
ムスリム	-11.1417
に貢献	-11.1417
チャンピオンシップ	-11.1419
設定されている	-11.1421
徳川家	-11.1421
1873	-11.1421
低く	-11.1421
▁趣味は	-11.1422
とくに	-11.1422
浜松	-11.1427
番手	-11.1429
咲	-11.1429
国産	-11.1429
レーン	-11.1431
オレンジ	-11.1433
と思う	-11.1435
スケール	-11.1436
近くに	-11.1436
▁ある	-11.1436
変わって	-11.1437
1956	-11.1438
視覚	-11.1438
三重	-11.1439
織田	-11.144
イト	-11.1442
を誇る	-11.1443
毎に	-11.1443
かた	-11.1444
のひとつである	-11.1446
総額	-11.1446
ハッ	-11.1447
出荷	-11.1447
天文台	-11.1448
らん	-11.145
を書いた	-11.145
会社である	-11.1451
プレミアム	-11.1453
win	-11.1457
ることになる	-11.1457
簡単に	-11.1461
渡り	-11.1462
搭乗	-11.1462
無し	-11.1463
▁それでも	-11.1463
二人の	-11.1466
の王	-11.1467
関わり	-11.1468
蜂起	-11.1469
、1948	-11.147
ストー	-11.147
橘	-11.1473
をもたらした	-11.1474
▁as	-11.1478
決勝戦	-11.1479
撮	-11.148
訪	-11.1481
_3	-11.1481
単純な	-11.1482
いし	-11.1483
ザル	-11.1485
総選挙	-11.1486
テラ	-11.1486
ッキ	-11.1487
1952	-11.1487
二つ	-11.1488
湿	-11.1488
沿いに	-11.1489
を目指した	-11.1493
室町時代	-11.1493
没後	-11.1494
▁国際	-11.1495
かける	-11.1495
がなかった	-11.1496
ずる	-11.1497
詳しく	-11.1497
高崎	-11.1498
レフ	-11.1498
地で	-11.1499
夏季	-11.1499
胆	-11.15
中学校に通う場合	-11.15
親友	-11.15
形式で	-11.1501
南軍	-11.1502
河原	-11.1503
罰	-11.1504
はら	-11.1506
中立	-11.1507
付けた	-11.151
、1962	-11.1511
越後	-11.1514
学ぶ	-11.1515
朝日放送	-11.1516
のではないか	-11.1516
du	-11.1519
近藤	-11.1521
るようになり	-11.1522
撃墜	-11.1523
十字	-11.1523
過ごし	-11.1524
fw	-11.1525
も行っている	-11.1526
戦死した	-11.1526
ウェン	-11.1527
を制作	-11.1527
エウ	-11.1528
無事	-11.1528
交響楽団	-11.153
を結成し	-11.153
含む	-11.1531
猟	-11.1532
om	-11.1534
序盤	-11.1534
の水	-11.1535
友好	-11.1535
坂本	-11.1535
最終回	-11.1536
ョ	-11.1536
遼	-11.1537
ロンドンの	-11.1537
場で	-11.1537
併合	-11.1539
日本の元	-11.1539
代々	-11.1541
の西	-11.1543
あら	-11.1543
隊の	-11.1544
飯田	-11.1545
コミ	-11.1545
ことになり	-11.1547
テック	-11.1549
胴体	-11.155
並びに	-11.155
▁da	-11.155
みられる	-11.1552
ミッド	-11.1552
出口	-11.1553
本作品	-11.1556
立った	-11.1559
をつける	-11.1561
が成立した	-11.1561
1872	-11.1562
自由民主党	-11.1563
の小説	-11.1564
作曲した	-11.1566
に移った	-11.1566
捕獲	-11.1567
切断	-11.1568
▁他にも	-11.1571
ラッシュ	-11.1572
ピュ	-11.1573
出され	-11.1574
マルクス	-11.1574
ダンサー	-11.1574
1894	-11.1575
が主流	-11.1579
詰	-11.158
西ドイツ	-11.1581
殺された	-11.1584
科目	-11.1584
国際連合	-11.1584
ぎょう	-11.1586
タイトルは	-11.1587
摂	-11.1589
年後	-11.1591
▁1933	-11.1592
おく	-11.1593
砕	-11.1595
、1961	-11.1595
赤色	-11.1596
ソンは	-11.1597
っぱ	-11.1598
イロ	-11.1599
に設置	-11.1599
ブス	-11.1605
誤り	-11.1607
支給	-11.1608
レスリング	-11.1608
勢い	-11.161
ジア	-11.1612
シフト	-11.1614
送られた	-11.1617
特典	-11.1618
1915	-11.1618
たちを	-11.1619
このとき	-11.162
機を	-11.1621
の意見	-11.1622
ウエスト	-11.1625
銀座	-11.1626
往	-11.1627
は不	-11.1628
ken	-11.1628
同地	-11.1628
に初めて	-11.1629
教科書	-11.163
サーキット	-11.1631
定める	-11.1634
起こる	-11.1635
の車両	-11.1635
蒲	-11.1635
リーガ	-11.1636
曲は	-11.1638
映画祭	-11.1639
スン	-11.1639
表示される	-11.1641
をもたらす	-11.1642
▁tour	-11.1644
まつり	-11.1647
▁at	-11.1648
単純	-11.1648
奨励	-11.1648
噴火	-11.165
日光	-11.165
再婚	-11.1651
同校	-11.1652
行っていた	-11.1654
敷地	-11.1655
ヶ所	-11.1656
公募	-11.1657
ストレート	-11.1658
線で	-11.1659
粗	-11.166
ハリー	-11.166
帰国した	-11.1662
ドメイン	-11.1663
警察官	-11.1664
限られ	-11.1664
-19	-11.1664
報酬	-11.1668
tc	-11.167
干渉	-11.1671
荷物	-11.1671
それ以降	-11.1672
に影響	-11.1673
歴史家	-11.1673
前年の	-11.1673
圭	-11.1675
遅	-11.1675
することにより	-11.1677
計画は	-11.1679
1954	-11.1679
留め	-11.1679
、2020	-11.1683
生え	-11.1684
この頃	-11.1684
キーボード	-11.1685
ぴ	-11.1687
矛盾	-11.1688
最中	-11.1689
が決まった	-11.169
センチメートル	-11.1692
ベール	-11.1693
直前の	-11.1694
開戦	-11.1695
rp	-11.1696
を掲載	-11.1696
理事会	-11.1697
360	-11.1697
サウンドトラック	-11.1698
鞍	-11.1699
崩れ	-11.1699
絡	-11.17
独裁	-11.17
アンテナ	-11.1701
形を	-11.1701
用水	-11.1701
両が	-11.1702
謀	-11.1704
釜	-11.1705
貫通	-11.1706
学校法人	-11.1706
バット	-11.1707
流れる	-11.1708
シルバー	-11.1711
町に	-11.1712
現役引退	-11.1713
首長	-11.1713
象徴	-11.1713
落選	-11.1713
行使	-11.1713
ef	-11.1715
をあげ	-11.1716
を与えられ	-11.1716
斜	-11.1716
1884	-11.1716
笹	-11.1717
、1949	-11.1717
ウォル	-11.172
の登場	-11.172
、1930	-11.1722
秩序	-11.1723
であることが	-11.1726
列車は	-11.1727
エラ	-11.1727
形式の	-11.1727
メニュー	-11.1728
浄	-11.1731
に変え	-11.1732
を付け	-11.1732
生存	-11.1732
ソウ	-11.1734
どんな	-11.1734
貨	-11.1738
普通の	-11.1738
led	-11.1739
肢	-11.174
交わ	-11.174
ユーゴスラビア	-11.174
胃	-11.174
支払	-11.174
シニア	-11.1741
が開始され	-11.1741
ラーメン	-11.1741
毎月	-11.1742
上杉	-11.1744
オラ	-11.1745
タカ	-11.1746
最強	-11.1749
阿部	-11.1749
を取った	-11.1749
期限	-11.1751
光学	-11.1751
伏見	-11.1751
入居	-11.1752
ence	-11.1752
に行った	-11.1753
最下位	-11.1756
分から	-11.1758
鹿島	-11.1758
すい	-11.176
open	-11.176
news	-11.1761
沿い	-11.1761
階に	-11.1762
畳	-11.1762
tre	-11.1765
文政	-11.1766
南京	-11.1769
米ドル	-11.1771
さら	-11.1773
出身のサッカー選手	-11.1773
チームメイト	-11.1774
ものが多い	-11.1774
▁com	-11.1774
後継者	-11.1777
イカ	-11.1778
システムの	-11.1778
▁ii	-11.1781
頭の	-11.1782
ではないが	-11.1784
1907	-11.1784
ドクター	-11.1786
をとり	-11.1786
ウルトラマン	-11.1787
大学文学部	-11.1788
山中	-11.1789
大井	-11.179
1953	-11.1791
腫	-11.1791
世界的に	-11.1792
上場	-11.1792
体を	-11.1792
マルコ	-11.1795
家康	-11.1796
動機	-11.1797
祀	-11.1798
1893	-11.18
ニエ	-11.18
ラト	-11.1801
群の	-11.1802
代表作	-11.1804
が盛ん	-11.1806
婦	-11.1807
釈	-11.1808
宮崎県	-11.1809
根本	-11.1809
機能を	-11.181
世紀初頭	-11.181
面に	-11.1812
放送されている	-11.1813
終了し	-11.1813
レアル	-11.1814
陶	-11.1814
エッ	-11.1815
テレビ放送	-11.1815
貴重な	-11.1816
log	-11.1816
車庫	-11.1817
億ドル	-11.1818
津波	-11.1818
二人は	-11.1818
メンバーの	-11.1818
小学館	-11.1819
理由として	-11.1821
を広げ	-11.1822
乗車券	-11.1822
を作って	-11.1823
誰も	-11.1823
▁+	-11.1823
、1959	-11.1823
私の	-11.1826
謎の	-11.1826
▁もともと	-11.1827
建物は	-11.1827
ハンター	-11.1827
飛ば	-11.1829
ブドウ	-11.1831
以内に	-11.1833
ハルト	-11.1835
▁vi	-11.184
別に	-11.184
のなかで	-11.1842
神社の	-11.1843
併設	-11.1844
に転向	-11.1844
高知県	-11.1846
天下	-11.1846
赤字	-11.1847
としており	-11.1847
▁花	-11.1848
シロ	-11.1849
、1944	-11.1853
ピアニスト	-11.1853
ポルノ	-11.1855
ram	-11.1856
不定期	-11.1856
製作した	-11.1856
装着	-11.1856
ラマ	-11.1858
軍と	-11.186
の拠点	-11.1861
を維持し	-11.1861
プラザ	-11.1862
エンジンの	-11.1862
コンパクト	-11.1864
グレート	-11.1866
奴	-11.1868
協会の	-11.1869
切った	-11.187
1600	-11.1871
語源	-11.1871
相互作用	-11.1871
期間中	-11.1873
スプ	-11.1876
の人物	-11.1876
ァ	-11.1876
保全	-11.1877
子に	-11.1877
zo	-11.1878
サンダー	-11.1879
機材	-11.188
ニッ	-11.188
gar	-11.1882
ミール	-11.1882
1908	-11.1882
審査員	-11.1883
すみ	-11.1883
玩具	-11.1887
国際的な	-11.1888
ヴォル	-11.1888
年夏	-11.1889
発動	-11.1889
学科卒業	-11.1891
セックス	-11.1891
こうとうがっこう	-11.1892
、1958	-11.1892
察	-11.1893
1939	-11.1895
付いた	-11.1895
▁続く	-11.1895
着工	-11.1896
存在した	-11.1897
チャートで	-11.1898
たとえば	-11.1902
上述の	-11.1902
表明	-11.1902
もその	-11.1904
直通	-11.1905
の養子	-11.1905
リーズ	-11.1905
名詞	-11.1907
いけ	-11.1908
同月	-11.1909
子を	-11.191
ギュ	-11.1913
ヲ	-11.1913
母体	-11.1915
支線	-11.1915
mvp	-11.1916
年間で	-11.1919
摩	-11.192
救済	-11.1922
の写真	-11.1922
本形式	-11.1925
朝鮮半島	-11.1925
の製作	-11.1927
されることになった	-11.1928
川沿い	-11.1929
gl	-11.193
を決定した	-11.1931
専門家	-11.1932
賃金	-11.1934
ばかりの	-11.1935
役職	-11.1935
の共同	-11.1937
典型的な	-11.194
笛	-11.1941
決戦	-11.1942
主催の	-11.1942
ドック	-11.1943
ワース	-11.1943
▁ひろ	-11.1944
国土交通省	-11.1944
年頃から	-11.1946
gr	-11.1947
発足した	-11.195
アイデア	-11.1951
学研究科	-11.1953
大会の	-11.1954
飲料	-11.1954
ツォ	-11.1955
鑑賞	-11.1955
1885	-11.1955
に復帰	-11.1956
オイ	-11.1956
王妃	-11.1959
町名	-11.196
ler	-11.1961
シドニー	-11.1961
の一部は	-11.1962
ウィー	-11.1963
フォート	-11.1963
真実	-11.1965
臭	-11.1966
回避	-11.1966
前進	-11.1968
指令	-11.1969
起こった	-11.197
1888	-11.197
pl	-11.1973
ンダ	-11.1973
ェ	-11.1974
ストア	-11.1974
翌日	-11.1974
8000	-11.1975
こちらは	-11.1976
しやすい	-11.1976
中佐	-11.1977
▁1934	-11.1978
島根県	-11.198
十分に	-11.1981
マネジメント	-11.1981
1891	-11.1984
食用	-11.1985
を形成し	-11.1986
江戸時代の	-11.1986
▁天	-11.1987
▁→	-11.1987
州刺史	-11.1987
▁1932	-11.1989
キャン	-11.1991
らす	-11.1991
理由で	-11.1992
オロ	-11.1993
彫	-11.1993
▁car	-11.1995
という設定	-11.1996
貢	-11.1998
あの	-11.1999
降下	-11.2
方法は	-11.2003
ji	-11.2003
wba	-11.2004
inter	-11.2006
史上初の	-11.2006
▁fa	-11.2006
頻度	-11.2006
を再	-11.2007
年後に	-11.2007
スキル	-11.2008
▁その一方で	-11.2009
▁京都	-11.2009
働いた	-11.201
があること	-11.2011
に復帰した	-11.2012
大変	-11.2013
欠場	-11.2015
の物語	-11.2015
td	-11.2016
緒	-11.2016
会津	-11.2019
親衛隊	-11.2021
オレ	-11.2022
モンド	-11.2024
わせ	-11.2025
ができ	-11.2025
pre	-11.2026
初勝利	-11.2027
を満たす	-11.2027
の旧	-11.2028
▁du	-11.2031
所に	-11.2031
ホンダ	-11.2031
背番号	-11.2033
ベス	-11.2035
4000	-11.2036
かね	-11.2036
相対	-11.2039
鉱物	-11.2041
に向けた	-11.2042
マレー	-11.2042
斑	-11.2043
天神	-11.2043
乗降	-11.2046
の裏	-11.2046
幅広く	-11.2047
ぶつ	-11.2047
音響	-11.2047
充	-11.2048
〜」	-11.2049
レンジャー	-11.2049
今度は	-11.2049
ウリ	-11.2049
アダム	-11.205
ドラえもん	-11.205
親子	-11.2051
トリア	-11.2051
1886	-11.2053
の道	-11.2053
同級生	-11.2053
中継局	-11.2053
国土	-11.2054
回想	-11.2055
推移	-11.2055
所在	-11.2055
がよく	-11.2056
の起源	-11.2056
郷土	-11.2057
係数	-11.206
小学	-11.2062
捕	-11.2063
と称し	-11.2066
の撮影	-11.2067
開始された	-11.2068
産地	-11.207
閉じ	-11.2071
を設け	-11.2073
1957	-11.2074
グロー	-11.2077
使える	-11.2077
撤退した	-11.2079
車で	-11.2083
に改称	-11.2085
▁高校	-11.2085
1951	-11.2087
出会った	-11.2087
が得られる	-11.2088
ずっと	-11.2088
排出	-11.2088
メチル	-11.2091
イニング	-11.2091
定期的に	-11.2091
sch	-11.2091
に仕え	-11.2093
の中心地	-11.2094
訪れた	-11.2094
ふじ	-11.2095
ビリー	-11.2095
支社	-11.2096
委員会は	-11.2099
商標	-11.2099
書を	-11.21
は無	-11.21
社会党	-11.21
番号は	-11.2101
ロボ	-11.2102
度に	-11.2102
▁従って	-11.2103
地域は	-11.2104
休日	-11.2104
エレベーター	-11.2104
珍しく	-11.2105
日立	-11.2106
ジュー	-11.2107
ix	-11.2108
トンの	-11.2108
日本海軍	-11.2111
リッチ	-11.2112
データを	-11.2113
マリオ	-11.2113
の主な	-11.2113
見直し	-11.2113
婦人	-11.2116
年代初頭	-11.2116
萩	-11.2117
勧告	-11.2117
はないが	-11.2118
ガールズ	-11.2118
に巻き込まれ	-11.2118
に乗って	-11.2119
ってしまう	-11.2121
マジック	-11.2122
農地	-11.2122
残存	-11.2123
くれ	-11.2123
閉店	-11.2123
還元	-11.2125
の境界	-11.2125
を超えた	-11.2125
bra	-11.2126
厩舎	-11.2127
、1955	-11.2128
収録されている	-11.2129
1892	-11.213
合った	-11.213
ネーム	-11.213
ヘリ	-11.2134
中華	-11.2134
の指導者	-11.2135
内蔵	-11.2135
隠し	-11.2138
やその	-11.2139
成立した	-11.2139
仮想	-11.214
金銭	-11.214
レム	-11.214
6000	-11.214
の演奏	-11.2142
野生	-11.2142
初頭	-11.2143
年生の	-11.2145
上は	-11.2147
母の	-11.2148
google	-11.2148
qua	-11.2149
出てくる	-11.2149
、1940	-11.2149
佐野	-11.215
血液	-11.215
鳥類	-11.2152
渓谷	-11.2152
部位	-11.2152
ライオン	-11.2154
アルゴリズム	-11.2154
チェス	-11.2155
商業施設	-11.2155
エンタテインメント	-11.2155
免疫	-11.2156
モチーフ	-11.2156
瀬戸	-11.2157
することによって	-11.2157
東京帝国大学	-11.2157
グッド	-11.2159
晃	-11.2161
のではなく	-11.2161
氏族	-11.2162
日産	-11.2163
知られている	-11.2166
鍋	-11.2167
マネー	-11.2168
を余儀なくされた	-11.2169
ブラッド	-11.217
▁man	-11.217
タイムズ	-11.2171
の象徴	-11.2172
受けた	-11.2173
ましい	-11.2173
じま	-11.2173
進展	-11.2175
鄭	-11.2175
カワ	-11.2176
レンタル	-11.2176
ワード	-11.2178
地域では	-11.2179
ゴス	-11.2179
師匠	-11.2179
傾斜	-11.2179
食べ	-11.2182
想	-11.2182
が開催された	-11.2183
発行された	-11.2183
撮影所	-11.2184
を追い	-11.2184
ウラ	-11.2185
の組み合わせ	-11.2185
三丁目	-11.2187
を示している	-11.2188
事業を	-11.219
に残る	-11.2191
描かれ	-11.2191
高等学校卒業	-11.2192
が認められ	-11.2193
活動している	-11.2193
こん	-11.2194
條	-11.2194
標的	-11.2194
代わり	-11.2196
ヒン	-11.2198
を意味し	-11.2198
周囲に	-11.2198
策定	-11.2199
の文字	-11.2199
倭	-11.2201
、1956	-11.2202
鳥取	-11.2203
鋭	-11.2204
がなされ	-11.2205
鮮	-11.2205
町域	-11.2208
基本的には	-11.2209
見て	-11.221
実戦	-11.2211
交際	-11.2212
ies	-11.2212
所で	-11.2213
告白	-11.2214
るようになる	-11.2218
に建設された	-11.2218
ロープ	-11.2219
訪れ	-11.2221
▁そんな	-11.2222
隅	-11.2222
判明	-11.2222
ことなく	-11.2224
に迎え	-11.2224
が低い	-11.2225
投球	-11.2225
首都圏	-11.2227
バスの	-11.223
の中の	-11.2231
pan	-11.2231
の保護	-11.2231
運搬	-11.2231
書いている	-11.2232
様な	-11.2232
送られ	-11.2233
した結果	-11.2233
になってから	-11.2235
通っている	-11.2236
写本	-11.224
一気に	-11.224
彼女が	-11.2241
ことはできない	-11.2241
の命令	-11.2243
ブン	-11.2244
ことができない	-11.2245
管制	-11.2247
★	-11.2247
sen	-11.2248
リティ	-11.2248
アース	-11.2249
と称される	-11.2249
レジ	-11.225
の役割	-11.2251
荒川	-11.2252
斜面	-11.2252
▁1935	-11.2252
メロディ	-11.2252
リメイク	-11.2253
はん	-11.2255
会う	-11.2255
独自に	-11.2255
毛利	-11.2256
キット	-11.2257
旗艦	-11.2258
トップチーム	-11.226
μ	-11.226
滑走路	-11.2261
追跡	-11.2262
乗務員	-11.2262
言えば	-11.2262
らせる	-11.2264
カントリー	-11.2264
アンリ	-11.2264
宿泊	-11.2266
湊	-11.2266
sy	-11.2267
平等	-11.2268
を探	-11.2269
ium	-11.227
靖	-11.227
1887	-11.227
坑	-11.2272
符号	-11.2273
の一種である	-11.2274
というのは	-11.2276
ata	-11.2276
立体	-11.2278
数を	-11.2278
災	-11.228
本作は	-11.2282
全体で	-11.2283
のあった	-11.2284
hu	-11.2286
を目的とした	-11.2287
▁サン	-11.2288
が見	-11.229
引き上げ	-11.2291
運転台	-11.2292
以内	-11.2294
請	-11.2294
それでも	-11.2294
予定だったが	-11.2295
の一つとして	-11.2295
慎	-11.2296
ier	-11.2296
源氏	-11.2297
イング	-11.2297
量が	-11.2298
工程	-11.2298
内は	-11.2299
ance	-11.23
で行う	-11.2301
はフランス	-11.2303
されてしまう	-11.2307
cle	-11.2307
彗星	-11.2308
codice	-11.2308
点を	-11.2309
彼らが	-11.231
主権	-11.2311
ker	-11.2311
無視	-11.2312
決定戦	-11.2314
理念	-11.2314
確	-11.2316
156	-11.2317
旗本	-11.2318
ルク	-11.2321
ニカ	-11.2321
採掘	-11.2321
曽	-11.2322
遅く	-11.2323
暗号	-11.2325
柴	-11.2325
サリ	-11.2327
農場	-11.2328
▁血液型は	-11.2328
っこ	-11.2329
の中間	-11.233
の話	-11.2331
続けて	-11.2331
終わる	-11.2335
の意向	-11.2339
慕容	-11.234
除去	-11.234
の時点で	-11.2342
棲	-11.2342
デバイス	-11.2343
▁この他	-11.2343
▁これに対し	-11.2344
エビ	-11.2344
山陽	-11.2349
ren	-11.235
棋士	-11.2351
進め	-11.2351
されていなかった	-11.2352
が行われていた	-11.2354
設計された	-11.2354
招聘	-11.2354
移動する	-11.2355
に対応した	-11.2355
ディスプレイ	-11.2355
浸透	-11.2356
南朝	-11.2356
加熱	-11.2358
1869	-11.236
ヨーク	-11.236
、1952	-11.236
かかり	-11.2361
を進める	-11.2366
なっていった	-11.2366
馬力	-11.2368
スパー	-11.237
半径	-11.2371
125	-11.2374
つい	-11.2376
時点では	-11.2378
で構成されている	-11.238
といわれ	-11.238
中央区	-11.2381
っち	-11.2381
アプローチ	-11.2382
名乗り	-11.2382
参加し	-11.2383
に生息する	-11.2383
用地	-11.2384
の著作	-11.2385
時間を	-11.2387
プリン	-11.2387
通学	-11.2388
参議院	-11.2388
を追加	-11.2388
学長	-11.2389
車が	-11.2391
ā	-11.2391
佐世保	-11.2392
○	-11.2393
メトロ	-11.2395
等に	-11.2395
年代前半	-11.2396
ライナー	-11.2397
コレ	-11.2397
伝える	-11.2398
自動的に	-11.2398
まとめ	-11.2398
あげ	-11.2398
マリン	-11.2399
オールスター	-11.2399
種別	-11.2399
リース	-11.24
オリジナルの	-11.2401
ベースボール	-11.2402
▁lo	-11.2402
年間に	-11.2402
作品として	-11.2402
区にある	-11.2403
は同年	-11.2404
かさ	-11.2405
敦	-11.2405
でプレー	-11.2406
所得	-11.2406
定理	-11.2408
fr	-11.2409
哲学者	-11.241
成績は	-11.2412
こともあって	-11.2412
改築	-11.2413
1916	-11.2414
仰	-11.2415
しておらず	-11.2415
科学技術	-11.2416
本来は	-11.2416
際の	-11.242
整数	-11.2422
裁判官	-11.2422
スターリン	-11.2422
アリー	-11.2422
議会議員	-11.2423
狩猟	-11.2423
挿入	-11.2423
下院	-11.2423
あや	-11.2424
全国の	-11.2425
ite	-11.2426
第五	-11.2428
カルロス	-11.243
emi	-11.2431
明確な	-11.2431
連動	-11.2432
▁実際	-11.2433
付与	-11.2434
1937	-11.2434
1878	-11.2434
セキュリティ	-11.2435
о	-11.2435
アルメニア	-11.2436
軽量	-11.2436
はアメリカ合衆国	-11.2437
をそのまま	-11.2437
の割合	-11.2437
▁1928	-11.244
の男性	-11.244
千人	-11.244
上空	-11.2442
尽く	-11.2443
おらず	-11.2443
ゲームの	-11.2444
足を	-11.2444
なかなか	-11.2445
広島市	-11.2446
エミ	-11.2446
の構成	-11.2447
建てられた	-11.2447
呼ばれ	-11.2447
城に	-11.2451
かけた	-11.2452
を実施した	-11.2453
ue	-11.2453
ヘー	-11.2454
カロ	-11.2455
air	-11.2455
サマー	-11.2455
バルブ	-11.2457
時間の	-11.2459
南北に	-11.2459
図書	-11.2459
▁但し	-11.246
キャラクターの	-11.246
▁これに対して	-11.246
はドイツ	-11.2461
▁この場合	-11.2463
誓	-11.2463
メラ	-11.2463
副会長	-11.2465
療養	-11.2466
▁ver	-11.2467
nic	-11.2467
セガ	-11.2468
東京府	-11.2469
変わった	-11.2469
どのような	-11.247
十両	-11.247
っていたが	-11.2472
年の国勢調査	-11.2472
制服	-11.2475
▁system	-11.2476
を目指し	-11.2477
......	-11.2477
望遠鏡	-11.2477
撤去	-11.2478
づき	-11.2478
クリスチャン	-11.2479
放送時間	-11.2479
日本での	-11.248
目撃	-11.2481
が発表され	-11.2482
人であり	-11.2482
黒田	-11.2482
のだが	-11.2482
ごとの	-11.2482
が可能な	-11.2482
ロックバンド	-11.2483
邸宅	-11.2486
を深め	-11.2486
制作の	-11.2488
スケ	-11.2489
横綱	-11.249
企業である	-11.2491
直轄	-11.2491
を送った	-11.2492
央	-11.2492
皇族	-11.2493
完成した	-11.2495
現在まで	-11.2495
放送の	-11.2496
月中旬	-11.2497
血管	-11.2499
橋梁	-11.2499
チャンピオンズリーグ	-11.2501
事前に	-11.2501
失われた	-11.2501
フェルト	-11.2501
あて	-11.2504
久保	-11.2505
▁基本的に	-11.2506
突入	-11.2506
ser	-11.2509
▁1927	-11.2512
▁隣接するコムーネは以下の通り	-11.2513
牙	-11.2514
そもそも	-11.2516
ブレイク	-11.2516
和平	-11.2516
教徒	-11.2518
拾	-11.2518
は中華人民共和国	-11.2521
のファン	-11.2521
明るい	-11.2522
マット	-11.2523
シュタット	-11.2523
linux	-11.2525
の主張	-11.2525
定住	-11.2525
回目	-11.2525
シーズンに	-11.2525
ウェア	-11.2526
の第一	-11.2528
1905	-11.2528
日程	-11.2528
本当に	-11.2528
プレーヤー	-11.253
困難な	-11.2531
進み	-11.2533
▁郵便番号は	-11.2534
▁cd	-11.2536
船の	-11.2536
ものだ	-11.2537
初当選	-11.2537
が含まれている	-11.2538
▁z	-11.254
再興	-11.254
ショック	-11.254
佐賀県	-11.2541
で約	-11.2541
に対しても	-11.2543
面では	-11.2544
を築いた	-11.2545
赤軍	-11.2545
埋葬	-11.2546
潜水	-11.2546
▁出典	-11.2546
万人の	-11.2547
近隣の	-11.2547
起動	-11.2547
隊は	-11.2547
神学	-11.2547
フランツ	-11.2548
そのため	-11.2548
ガメ	-11.2548
していて	-11.2549
販	-11.2554
ベッ	-11.2556
さらなる	-11.2557
組の	-11.2558
を担う	-11.2558
ポリス	-11.2559
西暦	-11.256
mat	-11.2561
キリ	-11.2561
発売した	-11.2563
長谷川	-11.2563
なぜ	-11.2563
暖	-11.2564
をマーク	-11.2564
らせた	-11.2564
英文	-11.2565
▁最終的に	-11.2566
特徴的な	-11.2568
star	-11.2569
前提	-11.2569
も含めて	-11.257
架空の	-11.257
も務めた	-11.257
発売されている	-11.2571
存在し	-11.2571
▁ta	-11.2574
早朝	-11.2575
を抑え	-11.2578
犠牲者	-11.2578
そんな	-11.2579
する際	-11.2579
補強	-11.258
出入口	-11.258
ザール	-11.258
場の	-11.2581
出される	-11.2582
ファイト	-11.2583
使用できる	-11.2585
人格	-11.2585
に該当する	-11.2587
順序	-11.2587
以下に	-11.2588
のモデル	-11.2589
ホット	-11.2589
大山	-11.2589
の名称は	-11.259
チケット	-11.2591
寄贈	-11.2592
庶民	-11.2592
父親の	-11.2592
幼児	-11.2594
微分	-11.2594
育ち	-11.2594
」("	-11.2596
の準備	-11.2598
ley	-11.2598
どちらか	-11.26
ブッシュ	-11.26
殺害された	-11.2601
さわ	-11.2601
治安	-11.2601
アナウンス	-11.2602
夜の	-11.2602
耕	-11.2603
食糧	-11.2604
倒産	-11.2605
無理	-11.2605
マイナー	-11.2608
面の	-11.2609
知らない	-11.2609
メンバーは	-11.261
審議会	-11.261
1909	-11.261
粘	-11.2611
の大部分	-11.2614
が主	-11.2615
利点	-11.2616
に留学	-11.2618
誤解	-11.262
らしく	-11.2621
一門	-11.2621
越前	-11.2622
ずれ	-11.2622
他人	-11.2622
鴨	-11.2623
シエ	-11.2624
寛政	-11.2624
のみを	-11.2626
書いて	-11.2626
▁1929	-11.2626
までの間	-11.2627
と並んで	-11.2628
ek	-11.2628
パンチ	-11.2628
食い	-11.263
▁その際	-11.2631
元帥	-11.2631
手続	-11.2632
台詞	-11.2632
おん	-11.2632
の名で	-11.2633
、1946	-11.2635
165	-11.2636
、1954	-11.2636
わなかった	-11.2636
台地	-11.2639
に変更した	-11.264
することもある	-11.264
描かれる	-11.264
ムハンマド	-11.2641
ローラ	-11.2641
バース	-11.2642
法は	-11.2643
ッキー	-11.2643
鳥取県	-11.2644
助言	-11.2644
▁発売元は	-11.2645
シナ	-11.2646
工場で	-11.2649
進軍	-11.265
貨車	-11.265
▁pe	-11.2651
松田	-11.2651
を卒業後	-11.2653
兼任	-11.2654
ことにした	-11.2654
eg	-11.2655
工夫	-11.2655
ドッグ	-11.2655
ことができなかった	-11.2655
上がって	-11.2656
運行されている	-11.2656
実態	-11.2658
も可能	-11.2658
nfl	-11.2659
に戻って	-11.266
告知	-11.2661
レイク	-11.2663
楠	-11.2665
鱗	-11.2665
リコ	-11.2665
調節	-11.2666
ストック	-11.2666
異動	-11.2667
は特に	-11.2668
▁よし	-11.267
薄い	-11.2672
ポンプ	-11.2672
集め	-11.2672
発症	-11.2674
▁1924	-11.2676
の形状	-11.2676
ーレ	-11.2676
開校	-11.2677
人組	-11.2677
▁近年	-11.2678
甥	-11.2681
の最	-11.2681
救急	-11.2682
が発見された	-11.2684
を越えて	-11.2684
同行	-11.2685
も含む	-11.2686
akb	-11.2687
の名前は	-11.2688
が進み	-11.2688
アーム	-11.2688
高木	-11.2689
解任	-11.2689
事務局	-11.269
cha	-11.269
人として	-11.2691
ソール	-11.2692
月号から	-11.2692
正常	-11.2693
乗組員	-11.2693
シーズンには	-11.2693
ハインリヒ	-11.2693
軍用	-11.2694
やく	-11.2694
通常盤	-11.2696
水泳	-11.2697
点が	-11.2697
規	-11.2699
ネコ	-11.2699
▁1931	-11.2702
青木	-11.2706
気動車	-11.2708
過ごす	-11.2708
擁護	-11.2713
プレゼント	-11.2714
死の	-11.2714
最高裁判所	-11.2715
高地	-11.2715
カート	-11.2716
に収録	-11.2716
差異	-11.2716
たれ	-11.2718
撃破	-11.2719
クリー	-11.272
は無く	-11.272
と思い	-11.2721
えば	-11.2721
▁ほか	-11.2723
をかけ	-11.2723
システムは	-11.2724
1889	-11.2724
はならなかった	-11.2724
撃退	-11.2729
壮	-11.2729
タービン	-11.273
忠実	-11.273
寿命	-11.2731
エキ	-11.2732
慶應義塾大学	-11.2732
ach	-11.2732
を開設	-11.2733
存在していた	-11.2735
フェイ	-11.2736
エリック	-11.2736
に大きく	-11.2737
恐竜	-11.2737
作の	-11.2737
ものではなく	-11.2739
土器	-11.2739
ティル	-11.2739
川口	-11.274
題名	-11.274
ボリ	-11.2741
春の	-11.2742
補償	-11.2744
pop	-11.2745
を見せる	-11.2745
に直接	-11.2746
川と	-11.2746
入れ替え	-11.2748
付いて	-11.2749
ナレーション	-11.2749
ven	-11.2749
開通した	-11.2752
国民党	-11.2753
捉え	-11.2753
ting	-11.2758
0.1	-11.2759
フン	-11.276
実際は	-11.276
ウェー	-11.2762
日午前	-11.2762
制作した	-11.2764
爪	-11.2764
長に就任	-11.2766
new	-11.2767
苗	-11.2769
を皮切りに	-11.277
事前	-11.277
外野手	-11.2771
の協力	-11.2772
番組である	-11.2773
1906	-11.2774
小型の	-11.2777
本作では	-11.2777
切って	-11.2777
1938	-11.2779
重視	-11.2779
伊東	-11.2781
が設立され	-11.2781
、1943	-11.2782
に編入された	-11.2782
á	-11.2782
ないもの	-11.2783
司祭	-11.2783
謎	-11.2785
内での	-11.2785
住吉	-11.2786
の命	-11.2786
ムーン	-11.2788
ins	-11.2789
時代劇	-11.2789
スティック	-11.2789
再開発	-11.279
書簡	-11.2793
行なわれた	-11.2796
サード	-11.2796
書房	-11.2799
出身の元プロ野球選手	-11.2799
▁毎年	-11.2803
1.0	-11.2803
混同	-11.2803
深刻な	-11.2804
蒸気機関車	-11.2804
円形	-11.2806
アフガニスタン	-11.2807
カレー	-11.2807
変わる	-11.2808
という形で	-11.2808
ボーイング	-11.2808
▁he	-11.281
呼吸	-11.281
葛	-11.2813
▁市立小	-11.2813
難民	-11.2814
テイラー	-11.2814
リスナー	-11.2815
缶	-11.2817
アキ	-11.2817
を受けていた	-11.2817
ることを	-11.2818
▁mar	-11.2818
量子	-11.2821
フード	-11.2821
国民の	-11.2825
ファーム	-11.2825
とみられる	-11.2826
気温	-11.2827
ロット	-11.2827
どちら	-11.2828
の妹	-11.2829
弾圧	-11.2829
中日	-11.2829
武帝	-11.283
河口	-11.2832
あさ	-11.2833
が残る	-11.2834
身長	-11.2834
リッジ	-11.2835
倒し	-11.2835
枚目の	-11.2835
日本一	-11.2835
どれ	-11.2838
るよう	-11.2838
ことがあった	-11.2839
予定である	-11.284
あれ	-11.2841
も含め	-11.2841
でプレーし	-11.2842
ベンチ	-11.2842
ことなど	-11.2843
浸	-11.2843
燃	-11.2845
使用している	-11.2845
統括	-11.2847
1876	-11.2849
パンク	-11.2849
101	-11.285
はすでに	-11.285
防災	-11.285
の街	-11.2851
北上	-11.2852
閣僚	-11.2853
1860	-11.2853
大学校	-11.2853
史跡	-11.2853
コイ	-11.2854
前後の	-11.2855
の弟子	-11.2855
潰	-11.2856
の友人	-11.2856
きり	-11.2856
マック	-11.2857
へい	-11.2858
に任命され	-11.2858
cho	-11.286
上方	-11.2862
ari	-11.2862
その結果	-11.2863
パイプ	-11.2863
津軽	-11.2863
を探し	-11.2863
ei	-11.2864
宇宙船	-11.2864
大久保	-11.2867
することも	-11.2867
二度	-11.2867
掲載されている	-11.2868
を有している	-11.2868
を巡って	-11.2869
バカ	-11.287
撃沈	-11.287
全国大会	-11.2871
芸名	-11.2872
1936	-11.2874
攻勢	-11.2874
投下	-11.2874
有利	-11.2875
安定した	-11.2876
ピッチ	-11.2876
に就任する	-11.2877
az	-11.2878
の顔	-11.2879
賛	-11.288
となるが	-11.288
運び	-11.2882
世話	-11.2882
として生まれる	-11.2885
ヴィクトリア	-11.2885
を対象に	-11.2885
ホッ	-11.2886
線の駅	-11.2886
バク	-11.2887
数え	-11.2887
パキスタン	-11.2888
ダブルス	-11.2888
実証	-11.2889
父が	-11.2892
千代	-11.2892
タウ	-11.2892
と批判	-11.2892
酔	-11.2892
全車	-11.2892
各国の	-11.2893
用品	-11.2895
探索	-11.2897
朝日新聞	-11.2898
同人	-11.2898
批評	-11.2899
、1957	-11.29
コイン	-11.29
今日の	-11.2901
聖堂	-11.2901
窪	-11.2902
モジュール	-11.2903
可決	-11.2904
リヒ	-11.2904
の最高	-11.2905
症候群	-11.2905
熱帯	-11.2906
、1941	-11.2907
それほど	-11.2908
作られる	-11.2908
測量	-11.291
、1942	-11.291
の出演	-11.291
受け入れられ	-11.291
貸	-11.2911
雀	-11.2912
オイル	-11.2913
尼	-11.2914
「"	-11.2914
高温	-11.2914
道徳	-11.292
英語の	-11.292
したもので	-11.2923
をつけた	-11.2923
が無く	-11.2923
ケア	-11.2923
dia	-11.2924
▁サ	-11.2924
はかなり	-11.2925
標識	-11.2928
配信された	-11.2928
略奪	-11.2929
警視庁	-11.2929
といって	-11.2929
ボランティア	-11.293
ノア	-11.293
教団	-11.2931
必須	-11.2933
の強化	-11.2934
とみなされ	-11.2934
出産	-11.2935
迎え	-11.2935
海水	-11.2936
されたこと	-11.2936
謝	-11.2937
肌	-11.2937
ou	-11.2937
しげ	-11.2937
一行	-11.2938
年秋	-11.2938
ソフトバンク	-11.2941
自由党	-11.2943
オランダの	-11.2945
mu	-11.2947
審議	-11.2948
沈没	-11.2949
1882	-11.295
▁1925	-11.295
くろ	-11.295
愛知県名古屋市	-11.2951
交付	-11.2952
作動	-11.2952
ヴィス	-11.2952
年ごろ	-11.2953
自国	-11.2953
ガム	-11.2953
積分	-11.2955
日本海	-11.2955
が続く	-11.2955
ことがあり	-11.2962
派遣された	-11.2962
車輪	-11.2962
欠点	-11.2963
指数	-11.2964
世紀には	-11.2964
簡	-11.2964
パーティ	-11.2965
勝ちを収め	-11.2965
三条	-11.2965
は何	-11.2968
を舞台に	-11.2968
音楽の	-11.2968
務める	-11.2969
邑	-11.297
▁my	-11.297
はまた	-11.2971
を参照のこと	-11.2973
見られた	-11.2974
キシ	-11.2975
リン酸	-11.2977
ベック	-11.2978
俣	-11.2979
書く	-11.2979
帆	-11.2979
ルカ	-11.2979
レイン	-11.2981
を高める	-11.2981
、1951	-11.2983
二十	-11.2983
一日	-11.2984
ここから	-11.2984
の多く	-11.2984
サンド	-11.2987
覧	-11.2988
プロ入り	-11.2988
再選	-11.2988
can	-11.2989
姫路	-11.299
年度から	-11.2991
部門で	-11.2994
に収録されている	-11.2996
したとき	-11.2997
意志	-11.2997
を設置し	-11.3001
会見	-11.3003
強豪	-11.3004
不在	-11.3004
破壊された	-11.3005
▁この時期	-11.3007
▁上記の	-11.3007
小規模な	-11.3008
節の	-11.3009
今回	-11.301
パシフィック	-11.301
長は	-11.3011
基の	-11.3011
は中国	-11.3012
有数の	-11.3017
テクノロジー	-11.3019
世間	-11.302
環状	-11.302
綴	-11.3021
直し	-11.3021
今作	-11.3022
みち	-11.3022
で放送	-11.3025
ときには	-11.3026
ムン	-11.3029
ディーゼル	-11.3029
マンチェスター	-11.303
入った	-11.3032
に選ばれ	-11.3032
させられた	-11.3032
部隊が	-11.3034
得た	-11.3037
後者は	-11.3037
引き継がれ	-11.3038
月曜	-11.304
住む	-11.3042
チェル	-11.3043
ちょうど	-11.3043
が現れる	-11.3044
最終戦	-11.3047
衡	-11.3048
新興	-11.3048
つつも	-11.3048
松井	-11.3049
を表明	-11.3051
形に	-11.3052
右側	-11.3052
窓口	-11.3052
スピン	-11.3053
の独立	-11.3055
フロリダ	-11.3055
洞窟	-11.3055
、1953	-11.3057
符	-11.3058
を発見し	-11.3059
馬の	-11.306
会議で	-11.3062
の最後の	-11.3064
と見られる	-11.3064
考古学	-11.3064
中盤	-11.3064
▁他	-11.3066
無人	-11.3067
表す	-11.3068
懸	-11.307
に移行	-11.307
飛行隊	-11.307
太鼓	-11.307
心を	-11.3071
ウィルソン	-11.3073
祖先	-11.3073
番艦	-11.3075
に出走	-11.3077
グレン	-11.3078
を伝える	-11.3078
開き	-11.3078
オブジェクト	-11.3082
安全性	-11.3082
がおり	-11.3082
▁当時は	-11.3083
えて	-11.3086
政界	-11.3086
ない限り	-11.3088
ジョージア	-11.3089
拳銃	-11.3091
に見	-11.3091
世代の	-11.3091
客室	-11.3092
抽選	-11.3093
ッシング	-11.3094
取り付け	-11.3094
を連れて	-11.3097
哀	-11.3097
奪	-11.3098
を残している	-11.3099
▁1923	-11.3099
小島	-11.31
放射線	-11.3101
シベリア	-11.3104
勝利した	-11.3105
方は	-11.3106
作目の	-11.3106
結果は	-11.3106
▁その他の	-11.3106
1879	-11.3106
ソース	-11.3107
バージニア州	-11.3108
が生じた	-11.3108
ive	-11.3111
区間は	-11.3112
▁inc	-11.3113
がなされている	-11.3113
者と	-11.3114
▁それから	-11.3114
を問わず	-11.3115
の理論	-11.3117
ブルック	-11.3118
貧困	-11.3118
チームを	-11.3118
ref	-11.3118
定められ	-11.3119
の人口	-11.3119
1874	-11.3121
ev	-11.3122
孤立	-11.3124
はそのまま	-11.3125
love	-11.3125
家屋	-11.3126
徳川家康	-11.3127
東アジア	-11.3127
選ばれ	-11.3127
オートバイ	-11.3128
を与えられた	-11.3129
系図	-11.313
巡目	-11.3132
露出	-11.3132
緊張	-11.3132
に任じられた	-11.3134
告発	-11.3135
づくり	-11.3136
も同様	-11.3136
プト	-11.3137
筋肉	-11.3137
京王	-11.3137
トロント	-11.3139
▁清	-11.3139
"」	-11.3139
マルク	-11.314
の影響を受け	-11.3141
動く	-11.3142
獲得した	-11.3143
斬	-11.3145
▁これによって	-11.3146
ウルフ	-11.3146
戦った	-11.3146
▁vol	-11.3147
と考えていた	-11.3148
作中	-11.3148
クラン	-11.3148
を建て	-11.315
同市	-11.315
首脳	-11.3151
最後は	-11.3152
囲碁	-11.3153
洪	-11.3153
短期大学	-11.3154
が設立された	-11.3154
歩道	-11.3154
侵害	-11.3154
オフに	-11.3155
を聞き	-11.3155
研究員	-11.3156
演じる	-11.3156
が流れ	-11.3156
van	-11.3157
割合	-11.3158
jst	-11.3158
トリック	-11.3159
っか	-11.316
を認める	-11.316
ノキ	-11.3163
の前で	-11.3163
パロディ	-11.3164
アミ	-11.3165
飼	-11.3165
マニア	-11.3166
▁慶長	-11.3168
pk	-11.3168
みの	-11.3169
を導入し	-11.317
設立され	-11.3171
を名乗る	-11.3171
sr	-11.3173
付きの	-11.3176
グラー	-11.3177
揚げ	-11.3178
マケドニア	-11.3178
悲劇	-11.3179
決意	-11.318
起工	-11.3182
崖	-11.3183
light	-11.3184
リンカーン	-11.3184
1890	-11.3185
オファー	-11.3187
重い	-11.3188
を相手に	-11.3188
に当たって	-11.319
年半	-11.3191
おこ	-11.3192
人も	-11.3193
アト	-11.3193
ということで	-11.3194
隣の	-11.3194
魔女	-11.3195
大統領選挙	-11.3196
伝道	-11.3196
▁もっとも	-11.3196
比率	-11.3197
与党	-11.3201
ドコモ	-11.3201
ッグ	-11.3201
rn	-11.3201
oo	-11.3202
構	-11.3205
オリコン	-11.3206
over	-11.3206
隈	-11.3206
されることとなった	-11.3208
破産	-11.3212
磐	-11.3212
臼	-11.3212
されることもある	-11.3212
ハナ	-11.3214
1881	-11.3214
急遽	-11.3214
は完全に	-11.3215
バスク	-11.3216
黙	-11.3217
逮捕され	-11.3217
嫌い	-11.3217
と発表した	-11.322
繋	-11.3222
ml	-11.3222
アーチ	-11.3223
直ちに	-11.3224
が放送された	-11.3229
が成立する	-11.3229
川水系	-11.3231
現職	-11.3232
渡す	-11.3236
復旧	-11.3237
反論	-11.3237
年次	-11.3238
を掛け	-11.3239
知らせ	-11.324
後輩	-11.3241
動脈	-11.3242
神々	-11.3242
に任じられ	-11.3244
宜	-11.3247
ö	-11.3248
cre	-11.3249
路線は	-11.3249
てつ	-11.3249
と信じ	-11.325
を避けるため	-11.325
ことができず	-11.3251
blue	-11.3252
原稿	-11.3253
ラール	-11.3253
名鉄	-11.3254
市で	-11.3254
スペクトル	-11.3254
が同じ	-11.3255
アイス	-11.3255
オーストラリアの	-11.3256
▁第一次世界大戦	-11.3256
牝馬	-11.3257
▁江戸時代	-11.3259
現存	-11.326
娘の	-11.326
近郊の	-11.326
然と	-11.326
1800	-11.3261
に代わり	-11.3263
関係は	-11.3264
ユニバーサル	-11.3266
醸造	-11.3267
感染症	-11.3269
解散した	-11.3271
集英社	-11.3271
共産主義	-11.3272
の兄	-11.3273
体は	-11.3274
彰	-11.3274
側近	-11.3276
を卒業し	-11.3277
危険性	-11.3279
を走る	-11.3279
介護	-11.3279
信頼性	-11.3279
オープンした	-11.328
上院議員	-11.328
に触れ	-11.328
を兼ね	-11.3281
小規模	-11.3282
販売する	-11.3282
ハードウェア	-11.3283
豊富な	-11.3284
ade	-11.3284
母は	-11.3284
ゴリ	-11.3284
の分野で	-11.3285
一貫して	-11.3285
販売された	-11.3285
写像	-11.3285
日本政府	-11.3287
公的	-11.3288
の管轄	-11.3288
以降に	-11.3289
一貫	-11.329
▁通称は	-11.3291
鳥羽	-11.3291
多少	-11.3292
gb	-11.3292
ませ	-11.3292
笑い	-11.3293
ホイ	-11.3294
剥	-11.3294
ランダム	-11.3296
ニューヨークの	-11.3297
わせる	-11.3298
1.2	-11.3299
入門	-11.33
ネク	-11.3301
艦船	-11.3302
設定された	-11.3302
連敗	-11.3303
住友	-11.3303
住人	-11.3304
駿	-11.3305
しまった	-11.3306
ダート	-11.3313
から成る	-11.3313
の一つで	-11.3313
たことで	-11.3313
杜	-11.3315
選出された	-11.3315
の学生	-11.3316
掘	-11.3319
シェー	-11.3321
決断	-11.3321
ジェリー	-11.3322
いっ	-11.3323
はそれ	-11.3324
毎日放送	-11.3324
つとめ	-11.3327
フェラーリ	-11.3327
ギャグ	-11.3329
グッズ	-11.3329
植物の	-11.333
で活躍した	-11.3332
アルミ	-11.3334
率が	-11.3335
メリット	-11.3335
注文	-11.3335
の名は	-11.3336
に指定され	-11.3336
子爵	-11.3338
アレクサンドル	-11.3339
たちと	-11.3339
ニル	-11.3341
把握	-11.3343
間違い	-11.3343
{	-11.3343
多くは	-11.3344
変遷	-11.3348
じる	-11.3349
減少した	-11.3351
作成した	-11.3351
していたこと	-11.3351
の上で	-11.3352
の例	-11.3353
鉄道が	-11.3354
キエフ	-11.3354
稚	-11.3355
ゆえに	-11.3357
週末	-11.3358
へ移籍した	-11.3358
層の	-11.3358
わけではなく	-11.3359
コミューン	-11.3359
blu	-11.3359
▁本作の	-11.336
を引き起こす	-11.336
コラム	-11.3364
が立ち	-11.3365
女性が	-11.3365
停車する	-11.3365
集まった	-11.3367
万年前	-11.3367
なみ	-11.3368
ざる	-11.3368
達の	-11.3369
type	-11.337
狩り	-11.3371
開け	-11.3371
行方不明	-11.3377
色彩	-11.3378
復讐	-11.3379
となったため	-11.338
外交官	-11.3382
メロ	-11.3382
に置かれた	-11.3383
の大きな	-11.3385
東区	-11.3386
を聞いた	-11.3389
に接する	-11.3391
入り口	-11.3391
マウント	-11.3391
の呼称	-11.3392
セールス	-11.3393
ことはなかった	-11.3394
1875	-11.3395
を奪い	-11.3397
利用可能	-11.3397
の総称	-11.3397
に加わった	-11.3398
low	-11.3399
らに	-11.34
灘	-11.34
容易	-11.34
エントリー	-11.34
媒体	-11.34
アンドレ	-11.34
掘り	-11.3401
プロレスラー	-11.3402
産物	-11.3403
開店	-11.3404
郡山	-11.3405
を採用	-11.3405
fs	-11.3406
デッキ	-11.3406
各地に	-11.3406
を起用	-11.3407
惨	-11.3407
祖母	-11.3407
▁続いて	-11.3408
半年	-11.3409
最長	-11.3409
デュー	-11.341
分野で	-11.3411
建造された	-11.3412
エクスプレス	-11.3412
推奨	-11.3412
砲弾	-11.3413
作家の	-11.3414
ダール	-11.3414
奪取	-11.3416
動物の	-11.3416
文法	-11.3416
改訂	-11.3417
遇	-11.3417
内務省	-11.3417
もはや	-11.3417
を覚え	-11.3419
ゾー	-11.3419
大幅な	-11.3421
持続	-11.3421
100%	-11.3421
内外	-11.3422
▁by	-11.3423
嘆	-11.3424
麺	-11.3424
造船	-11.3426
と呼んだ	-11.3426
▁an	-11.3426
全世界	-11.3426
▁1918	-11.3428
▁初期の	-11.3429
に転じた	-11.343
絵本	-11.3431
を上回る	-11.3431
ところに	-11.3433
青い	-11.3433
それらは	-11.3434
▁通称	-11.3434
豚	-11.3434
ano	-11.3436
ara	-11.3436
など様々な	-11.3437
収容所	-11.3437
ない場合	-11.3438
話す	-11.3438
レベルの	-11.344
菊池	-11.3441
生まれの	-11.3441
クン	-11.3442
ダグラス	-11.3442
安田	-11.3443
ピース	-11.3444
憂	-11.3445
ニョ	-11.3445
155	-11.3446
始動	-11.3446
に続き	-11.3447
1877	-11.3447
の政治	-11.3448
何度か	-11.3449
背中	-11.3449
を食べる	-11.3449
合体	-11.345
フランソワ	-11.345
左側	-11.3453
として生まれた	-11.3453
詳細な	-11.3454
と思った	-11.3455
チェロ	-11.3456
の著書	-11.3456
フォーム	-11.3457
let	-11.3459
子供の	-11.3459
をいう	-11.3459
コーラス	-11.346
ギャラリー	-11.3461
お互い	-11.3461
看護	-11.3462
以	-11.3463
▁東京都	-11.3463
などにも	-11.3464
選手団	-11.3464
科学的	-11.3464
アント	-11.3465
dream	-11.3466
ひとつの	-11.3469
人目	-11.3469
クション	-11.347
地球の	-11.3471
売買	-11.3471
クハ	-11.3472
任意	-11.3472
あお	-11.3472
1904	-11.3473
年末に	-11.3474
忌	-11.3474
パール	-11.3475
ks	-11.3475
御所	-11.3476
交響曲	-11.3476
年前に	-11.3476
を歴任した	-11.3477
まって	-11.3478
の無い	-11.3478
残っていた	-11.3479
を失う	-11.3479
アーズ	-11.348
を置き	-11.3481
骨折	-11.3482
ラヴ	-11.3483
列車の	-11.3483
計測	-11.3484
をあげた	-11.3484
暮らす	-11.3484
再会	-11.3486
食堂	-11.3488
とく	-11.3488
叩き	-11.3489
べる	-11.3489
棋	-11.349
との戦い	-11.3491
のデータ	-11.3491
mit	-11.3491
生じた	-11.3492
劇中	-11.3494
描き	-11.3496
シンガーソングライター	-11.3497
をめぐる	-11.3497
遺構	-11.3498
bit	-11.3498
が設けられている	-11.3499
ste	-11.35
想像	-11.35
に際し	-11.35
の一員として	-11.3501
▁1926	-11.3501
騎士団	-11.3503
意思	-11.3504
の合計	-11.3506
崩	-11.3506
開設された	-11.3506
拡大した	-11.3506
mbs	-11.3506
アパート	-11.3506
167	-11.3507
紙幣	-11.3507
イギリス海軍	-11.3508
ダメージ	-11.3509
か国	-11.3509
ミドル	-11.3509
本人は	-11.351
の教育	-11.351
イタリア語	-11.3512
代謝	-11.3514
方式の	-11.3519
ミズ	-11.352
を全て	-11.3521
にある公立小学校	-11.3521
部で	-11.3521
特攻	-11.3523
を挙げている	-11.3526
デール	-11.3526
の減少	-11.3527
認められた	-11.3528
両側	-11.3528
年までの	-11.3529
同型	-11.3529
cia	-11.3529
重要である	-11.353
川越	-11.3531
位を獲得	-11.3534
trans	-11.3536
中国人	-11.3536
特有の	-11.3536
の女	-11.3536
共通の	-11.3537
おおむね	-11.3538
はしばしば	-11.3538
の寺院	-11.3539
が廃止され	-11.3539
幾つかの	-11.354
が起きた	-11.354
付けられ	-11.354
一等	-11.3541
やってきた	-11.3541
ドレ	-11.3541
いか	-11.3542
を知った	-11.3544
さく	-11.3544
の曲	-11.3544
1933	-11.3545
寛永	-11.3545
と称した	-11.3546
支持者	-11.3547
に見える	-11.3547
援軍	-11.3547
を残し	-11.3551
主流	-11.3552
イングランドの	-11.3553
利用する	-11.3554
書類	-11.3555
構内	-11.3556
火星	-11.3556
が登場し	-11.3556
1864	-11.3556
だけである	-11.3558
学校で	-11.3559
連続で	-11.3559
ナトリウム	-11.356
懲役	-11.3562
殺人事件	-11.3562
-12	-11.3562
存在している	-11.3564
本数	-11.3565
添え	-11.3565
に用いる	-11.3565
呼びかけ	-11.3566
式典	-11.3566
せつ	-11.3567
とする説	-11.3567
致	-11.3568
出現する	-11.3568
試合は	-11.357
かなりの	-11.3571
進んだ	-11.3571
ほとんどが	-11.3574
じゅん	-11.3574
を攻め	-11.3575
阻害	-11.3576
出演する	-11.3576
メンバーが	-11.3577
川を	-11.3577
式で	-11.3579
をつけて	-11.3579
の旅	-11.3581
釈放	-11.3582
サロン	-11.3582
高麗	-11.3583
の字	-11.3583
ルートヴィヒ	-11.3584
役に	-11.3585
ハミルトン	-11.3586
ゲスト出演	-11.3586
受容体	-11.3587
のいずれか	-11.3589
アルプス	-11.359
ial	-11.359
マイン	-11.3591
▁ある日	-11.3592
暁	-11.3592
播磨	-11.3593
例である	-11.3595
の中央	-11.3596
アポロ	-11.3597
試合に出場	-11.3598
継いで	-11.3598
を取って	-11.3598
問題が	-11.3599
は旧	-11.3602
オク	-11.3602
掌	-11.3603
▁加えて	-11.3604
マーケット	-11.3604
音楽家	-11.3604
景気	-11.3604
長を務めた	-11.3605
検事	-11.3605
光の	-11.3605
ワーナー	-11.3606
手前	-11.3608
の領域	-11.3608
bar	-11.3608
うら	-11.3609
伝記	-11.361
が与えられ	-11.361
ケネディ	-11.3611
発見した	-11.3611
所管	-11.3612
cer	-11.3612
試合を	-11.3614
▁元々は	-11.3615
gk	-11.3615
蓄積	-11.3615
いずれの	-11.3616
容器	-11.3617
現れる	-11.3618
を中心として	-11.3619
情報番組	-11.3619
▁初	-11.3621
大谷	-11.3623
の会	-11.3624
▁両	-11.3624
了	-11.3627
フォーマット	-11.3628
作る	-11.3628
中京	-11.3629
フェー	-11.363
惣	-11.3632
否	-11.3633
に収録された	-11.3635
を搭載する	-11.3635
危険な	-11.3636
を巡る	-11.3637
どのように	-11.3637
記録は	-11.3638
国際映画祭	-11.3638
に備え	-11.364
初回限定盤	-11.364
結婚式	-11.364
平安	-11.3642
フロリダ州	-11.3642
ジョセフ	-11.3642
委員会の	-11.3644
の表記	-11.3645
明石	-11.3645
詠	-11.3646
ナイター	-11.3646
世界に	-11.3647
心配	-11.3647
ブライ	-11.3647
日本の政治家	-11.3648
▁当駅	-11.3651
ウォン	-11.3651
津市	-11.3652
カーン	-11.3652
評論	-11.3652
ヒューストン	-11.3652
階層	-11.3653
換え	-11.3653
線形	-11.3654
砂糖	-11.3655
高度な	-11.3655
ピカ	-11.3656
競輪	-11.3657
胎	-11.3658
大津	-11.3658
bbc	-11.366
と主張している	-11.366
申し出	-11.366
死に	-11.3662
クサ	-11.3663
クラブの	-11.3664
シャツ	-11.3666
モラ	-11.3666
アントニオ	-11.3667
nes	-11.3667
に恵まれ	-11.3669
大塚	-11.3671
断層	-11.3671
位となり	-11.3672
が一般的	-11.3673
両方	-11.3673
を強く	-11.3673
があって	-11.3674
安芸	-11.3674
ハンドル	-11.3674
サンデー	-11.3675
旭川	-11.3675
イタリア共和国	-11.3675
町立	-11.3677
は前	-11.3678
突如	-11.3679
ジェル	-11.368
先住民	-11.368
短期間	-11.3681
思い出	-11.3681
チーフ	-11.3682
ナビ	-11.3682
明かし	-11.3682
戦争で	-11.3682
0%	-11.3683
新生	-11.3683
金の	-11.3683
アトランタ	-11.3683
1883	-11.3685
の教授	-11.3685
に使用される	-11.369
1934	-11.3691
ムラ	-11.3692
くじ	-11.3693
サッカーリーグ	-11.3694
エンジニア	-11.3694
国語	-11.3694
優秀な	-11.3695
幾何学	-11.3696
通商	-11.3698
施設の	-11.3699
嫡男	-11.37
が形成され	-11.3701
7000	-11.3702
学んだ	-11.3702
全土	-11.3703
▁1919	-11.3704
ヒロ	-11.3706
胴	-11.3706
吉川	-11.3707
枠で	-11.3707
自作	-11.3708
スと	-11.3708
特別番組	-11.3709
縫	-11.371
ハリス	-11.371
問題を	-11.3712
浅野	-11.3712
上から	-11.3713
告	-11.3715
▁中世	-11.3715
その中に	-11.3716
電動	-11.3716
に変化	-11.3717
帽子	-11.3718
を決定する	-11.3719
を開いた	-11.372
で敗れ	-11.372
エッセイ	-11.3721
ターゲット	-11.3721
浴	-11.3722
を越える	-11.3722
利用されている	-11.3724
復活した	-11.3724
ジェフ	-11.3725
悩	-11.3725
思考	-11.3725
駅名	-11.3726
スタートした	-11.3727
を考え	-11.3727
スタンダード	-11.3727
小路	-11.3727
つながり	-11.3727
去る	-11.3728
に就いた	-11.3729
公開され	-11.3729
、1920	-11.373
所領	-11.3731
数少ない	-11.3731
人物である	-11.3732
アップル	-11.3733
自らが	-11.3733
する方法	-11.3733
自立	-11.3733
▁本項では	-11.3734
▁そのほか	-11.3735
ムービー	-11.3736
方を	-11.3739
1862	-11.3741
の経験	-11.3741
逸話	-11.3742
アメリカ海軍	-11.3744
題材	-11.3744
進水	-11.3746
学的	-11.3747
としての活動	-11.3747
神戸市	-11.3748
に収め	-11.3751
旅館	-11.3752
ナポリ	-11.3753
と呼称	-11.3754
言われ	-11.3755
を要する	-11.3755
キャップ	-11.3756
切られ	-11.3757
得られた	-11.3757
だったという	-11.3757
▁尚	-11.3759
は一切	-11.3759
一般的	-11.3759
を組んで	-11.376
卒業生	-11.3761
に基づいた	-11.3762
各々	-11.3762
の子会社	-11.3762
馬車	-11.3763
日放送分	-11.3764
敗で	-11.3765
簿	-11.3765
生前	-11.3767
を防ぐ	-11.3767
さを	-11.3767
重大な	-11.3768
考えられる	-11.3768
話を	-11.3769
▁のちに	-11.3775
展示されている	-11.3776
弁護	-11.3777
れい	-11.3779
当選した	-11.3781
十三	-11.3783
視察	-11.3785
に持ち	-11.3786
割引	-11.3788
-00	-11.3788
好調	-11.3789
改称	-11.3791
であったこと	-11.3792
日向	-11.3792
ことが多かった	-11.3793
鞭	-11.3793
転用	-11.3795
▁hi	-11.3795
適切	-11.3795
挨拶	-11.3796
国内外	-11.3796
本州	-11.3797
民営化	-11.3799
渋滞	-11.3799
わずかに	-11.3799
当番組	-11.3801
も同じ	-11.3801
ring	-11.3803
求め	-11.3805
歳以下	-11.3805
戯曲	-11.3806
の初代	-11.3807
増設	-11.3809
を強め	-11.3809
に応じ	-11.3811
qu	-11.3813
学区	-11.3814
フランクフルト	-11.3814
ポスター	-11.3814
中毒	-11.3815
高かった	-11.3815
名声	-11.3816
アフ	-11.3817
貯	-11.3818
長女	-11.3818
太子	-11.3818
1932	-11.3821
hen	-11.3822
化されている	-11.3822
後述する	-11.3822
リアス	-11.3823
原田	-11.3823
▁sp	-11.3823
鉛	-11.3823
ning	-11.3823
実務	-11.3825
北アメリカ	-11.3825
燃え	-11.3825
動物園	-11.3826
顕著	-11.3826
高校の	-11.3827
イギリスで	-11.3828
収穫	-11.3829
テレビ局	-11.383
の詩	-11.383
慣習	-11.3831
盲	-11.3833
窒素	-11.3833
共和国の	-11.3835
超人	-11.3835
法務	-11.3835
デトロイト	-11.3836
解明	-11.3836
正統	-11.3836
ショッピングセンター	-11.3837
デルタ	-11.3837
="	-11.3838
製薬	-11.3838
を提供している	-11.3841
冬の	-11.3842
戦目	-11.3843
が起き	-11.3844
の重要な	-11.3844
に向かい	-11.3845
藻	-11.3846
を失って	-11.3846
bd	-11.3846
▁二	-11.3846
考察	-11.3848
この番組	-11.3848
▁パ	-11.3849
幼少期	-11.3849
汚	-11.3849
が進められ	-11.385
悠	-11.3851
稽古	-11.3852
▁同日	-11.3852
んです	-11.3854
労働党	-11.3855
がれ	-11.3855
に編入	-11.3856
せて	-11.3856
州内	-11.3856
ゆく	-11.3857
アピール	-11.3857
日活	-11.3858
ドス	-11.3858
が建設された	-11.3859
全曲	-11.3859
ov	-11.3861
家畜	-11.3863
演奏会	-11.3864
sun	-11.3865
米国の	-11.3865
に進む	-11.3865
徴収	-11.3867
法学	-11.3868
が与えられた	-11.3868
hr	-11.3869
筆頭	-11.3869
決着	-11.3869
つは	-11.387
代官	-11.387
改札口	-11.3872
文化的	-11.3872
海兵隊	-11.3872
なき	-11.3873
これにより	-11.3876
4.5	-11.3876
要望	-11.3876
枕	-11.3877
後者	-11.3877
人質	-11.3877
日付の	-11.3877
歳の時	-11.3877
やかな	-11.3877
フェイス	-11.3878
dt	-11.3878
吐	-11.3878
に応え	-11.3878
王は	-11.3879
タイミング	-11.3879
1935	-11.388
明確に	-11.3881
身に	-11.3881
するような	-11.3885
主席	-11.3886
取扱	-11.3887
水源	-11.3887
中でも	-11.3887
引き分け	-11.3888
高層	-11.3888
陰謀	-11.3889
在日	-11.389
江戸幕府	-11.3891
バリエーション	-11.3892
生産された	-11.3892
アーク	-11.3893
は困難	-11.3893
ローレンス	-11.3893
グリー	-11.3893
月以降	-11.3894
が続き	-11.3895
vel	-11.3896
期限付き移籍	-11.3897
▁一部の	-11.3897
奪還	-11.3899
年代まで	-11.3899
豊富	-11.39
流用	-11.3901
のほうが	-11.3901
通りの	-11.3903
コッ	-11.3903
石垣	-11.3904
ルノー	-11.3905
活発	-11.3906
人間が	-11.3906
開発した	-11.391
悲	-11.3911
オリックス	-11.3912
(2010	-11.3912
本格	-11.3912
生きる	-11.3912
けど	-11.3915
品川	-11.3916
が建設され	-11.3916
秩父	-11.3917
の治療	-11.3918
に従事した	-11.3919
入りした	-11.392
上院	-11.392
なって	-11.3922
部分の	-11.3922
カテゴリー	-11.3922
発揮	-11.3924
として初めて	-11.3924
▁ジョン	-11.3924
@	-11.3926
アラビア語	-11.3926
ボイス	-11.3927
保障	-11.3928
で開催	-11.393
三好	-11.393
現金	-11.3932
地上波	-11.3932
に終わる	-11.3933
丹波	-11.3934
位だった	-11.3935
酷	-11.3936
製作所	-11.3937
呼び	-11.3937
ことが判明	-11.3938
滞	-11.3938
来て	-11.3942
ドキュメンタリー	-11.3943
年以来	-11.3944
コック	-11.3944
意義	-11.3944
ple	-11.3944
に関する法律	-11.3945
生活を	-11.3951
が実施された	-11.3951
社会人	-11.3951
10%	-11.3951
に従う	-11.3952
西村	-11.3953
毅	-11.3953
蹴	-11.3954
問題は	-11.3954
後楽園	-11.3955
敗れ	-11.3955
キラ	-11.3955
整え	-11.3956
は彼の	-11.3956
見られない	-11.3956
キリスト教徒	-11.3956
凡	-11.3957
マーケティング	-11.3958
の要請	-11.396
場所は	-11.396
公布	-11.3961
株主	-11.3961
駿河	-11.3961
短期	-11.3961
ノーベル	-11.3963
が整備され	-11.3963
したことから	-11.3965
粒	-11.3965
一時は	-11.3966
軍艦	-11.3966
藤井	-11.3966
の提供	-11.3966
の初期	-11.3968
▁これまで	-11.3971
販売している	-11.3972
地理学	-11.3972
国体	-11.3973
正月	-11.3973
▁この際	-11.3974
競技場	-11.3975
ンガ	-11.3976
小笠原	-11.3977
慈	-11.3978
位置づけ	-11.3978
バイト	-11.3978
−	-11.3979
するようになり	-11.398
王室	-11.398
power	-11.3981
金融機関	-11.3981
スリ	-11.3982
ていたこと	-11.3984
を組み合わせた	-11.3985
朝鮮人	-11.3986
ung	-11.3986
っぽ	-11.3986
ノット	-11.3987
ホイール	-11.3989
ったが	-11.3989
スウェーデンの	-11.399
語った	-11.399
tan	-11.3991
テッド	-11.3991
自分で	-11.3991
の報告	-11.3991
エンターテインメント	-11.3994
苑	-11.3994
月の第	-11.3995
の規模	-11.3996
線型	-11.3996
и	-11.3999
バンドの	-11.4
合流する	-11.4
ガソリン	-11.4001
あか	-11.4002
柴田	-11.4003
に完成した	-11.4003
通し	-11.4003
ばし	-11.4003
シマ	-11.4003
が採用された	-11.4004
フランシス	-11.4004
1863	-11.4005
を獲得する	-11.4005
みん	-11.4006
ぽ	-11.4007
手の	-11.4008
らく	-11.4008
ペルシア	-11.4009
仲介	-11.4009
生没年不詳	-11.401
をかけた	-11.401
武力	-11.4011
東西に	-11.4011
右手	-11.4011
盛んに	-11.4012
ホセ	-11.4013
基部	-11.4013
横山	-11.4014
を紹介する	-11.4015
棺	-11.4017
ell	-11.4018
前後に	-11.4018
が使われる	-11.402
が必要となる	-11.4021
ベッド	-11.4023
るような	-11.4024
ステル	-11.4025
阿波	-11.4025
のリリース	-11.4026
陣地	-11.4026
クシ	-11.403
教官	-11.4031
シラ	-11.4033
際は	-11.4033
左派	-11.4035
打席	-11.4036
uk	-11.4038
の間には	-11.4039
数千	-11.4039
いで	-11.404
パレスチナ	-11.4041
で死去	-11.4042
▁別名	-11.4043
力学	-11.4044
付く	-11.4045
魚類	-11.4046
ビジョン	-11.4046
予定であったが	-11.4048
ルーキー	-11.4049
想い	-11.405
を結び	-11.405
教育委員会	-11.405
を支持する	-11.4051
廟	-11.4051
適合	-11.4052
1.6	-11.4052
乗り換え	-11.4054
ムル	-11.4054
!!』	-11.4055
に耐え	-11.4056
路面電車	-11.4056
に来た	-11.4057
盾	-11.4058
わり	-11.406
記述する	-11.4061
体力	-11.4062
するようになる	-11.4063
クリーム	-11.4063
4,000	-11.4064
ハンス	-11.4065
勢力を	-11.4068
転向	-11.4069
グア	-11.4073
を命じた	-11.4073
徴	-11.4073
世界中の	-11.4074
に渡る	-11.4074
偉大な	-11.4075
フランス人	-11.4077
腫瘍	-11.4077
薩摩	-11.4078
皿	-11.4079
十郎	-11.408
出向	-11.408
▁it	-11.408
を装備し	-11.4081
que	-11.4082
集積	-11.4085
借金	-11.4086
東京市	-11.4086
▁金	-11.4086
島式ホーム	-11.4087
造営	-11.4088
車を	-11.4088
住民の	-11.4088
が追加された	-11.4089
股	-11.409
てくれた	-11.4092
に選出され	-11.4092
日本の俳優	-11.4092
地理	-11.4093
は常に	-11.4093
は多くの	-11.4093
橋の	-11.4097
腐	-11.4098
表記は	-11.4098
を執筆	-11.4099
安倍	-11.4099
果て	-11.4099
を買い	-11.41
コンピューター	-11.41
田川	-11.4101
ろく	-11.4101
学び	-11.4102
行なわれ	-11.4103
足利義	-11.4103
機動戦士ガンダム	-11.4103
を目的に	-11.4104
セレ	-11.4104
▁駅番号は	-11.4105
ライス	-11.4106
座標	-11.4106
のタイトルで	-11.4107
▁ad	-11.4108
水の	-11.4109
追撃	-11.4109
の育成	-11.4111
の終わり	-11.4112
慰	-11.4114
麻呂	-11.4115
再発	-11.4116
を巻き	-11.4116
泡	-11.4117
▁イ	-11.4118
レバー	-11.4119
半数	-11.4119
デッド	-11.412
カタルーニャ	-11.4124
和歌	-11.4124
我が	-11.4125
牧野	-11.4128
人であった	-11.413
og	-11.413
アメリカ陸軍	-11.4131
在住の	-11.4131
リョ	-11.4132
縄	-11.4133
歓	-11.4134
▁1922	-11.4134
宇治	-11.4135
を使用	-11.4136
両者の	-11.4136
を加える	-11.4138
大王	-11.4139
八戸	-11.4139
を必要とする	-11.4142
申し	-11.4144
付けられている	-11.4144
の御	-11.4144
通りに	-11.4144
尖	-11.4145
black	-11.4145
戻し	-11.4145
管内	-11.4146
í	-11.4146
高野	-11.4147
対象となる	-11.4147
近接	-11.4148
の値	-11.4152
ブール	-11.4152
アルバイト	-11.4152
昼間	-11.4153
シール	-11.4153
プラスチック	-11.4153
人物が	-11.4154
ロジャー	-11.4154
調教師	-11.4155
絹	-11.4155
▁ハ	-11.4157
北端	-11.4157
ü	-11.4158
曲目	-11.4158
ノミネート	-11.4158
後援	-11.4161
地として	-11.4161
決まり	-11.4161
}	-11.4162
と評している	-11.4162
見事	-11.4162
を構え	-11.4163
ヘッ	-11.4164
1931	-11.4164
人目の	-11.4166
尋ね	-11.4166
絞	-11.4167
メカ	-11.4167
種は	-11.4169
’	-11.4169
ロッ	-11.4172
状況を	-11.4173
送った	-11.4173
旋回	-11.4173
夫が	-11.4175
川流域	-11.4175
倍の	-11.4176
バージニア	-11.4177
させようと	-11.4177
1200	-11.4177
記念碑	-11.4178
路線の	-11.418
商船	-11.4181
を担当している	-11.4181
聡	-11.4181
顧	-11.4181
取り扱い	-11.4182
▁それまで	-11.4182
に出演し	-11.4183
錯	-11.4184
塵	-11.4185
チル	-11.4186
貸し	-11.4186
を変える	-11.4187
タマ	-11.4187
軽減	-11.4188
八王子	-11.4189
越し	-11.4192
設立した	-11.4193
テリ	-11.4193
割れ	-11.4193
全体が	-11.4195
就役	-11.4196
は少なく	-11.4196
飲	-11.4198
と言われた	-11.4199
などによって	-11.4199
▁そのような	-11.42
の一部として	-11.4201
隊が	-11.4201
権威	-11.4202
蕭	-11.4202
に応じた	-11.4204
犯行	-11.4204
更	-11.4205
女の子	-11.4205
定義される	-11.4207
オーディオ	-11.4207
マンハッタン	-11.4207
が知られている	-11.4208
ネズミ	-11.4209
ニク	-11.421
述べた	-11.4211
hol	-11.4215
上げて	-11.4215
に似ている	-11.4216
に留まった	-11.4216
危惧	-11.4218
飲食店	-11.422
が特徴である	-11.4221
親族	-11.4222
小田	-11.4223
太夫	-11.4225
アルファベット	-11.4225
出入り	-11.4226
アジ	-11.4226
ゃ	-11.4227
監査	-11.4228
寛文	-11.4228
氷河	-11.4228
去り	-11.4229
を指し	-11.4229
を支援する	-11.4229
ヘッドコーチ	-11.4231
ズが	-11.4231
熊谷	-11.4231
▁1921	-11.4232
合金	-11.4232
に関連する	-11.4233
代当主	-11.4235
男が	-11.4236
を奪われ	-11.4236
暑	-11.4237
海の	-11.4237
一般的には	-11.4237
社会の	-11.4238
に移し	-11.4238
十一	-11.4238
team	-11.4239
wwe	-11.424
パリの	-11.424
紀伊	-11.424
薫	-11.4241
▁fe	-11.4241
南北戦争	-11.4241
辞典	-11.4242
武蔵野	-11.4242
みなみ	-11.4243
その名	-11.4243
せない	-11.4244
将来の	-11.4244
に入学	-11.4245
賞賛	-11.4245
化して	-11.4246
のではないかと	-11.4247
ウラン	-11.4248
スイスの	-11.4249
等級	-11.4249
カウント	-11.4249
ファイア	-11.4249
双子	-11.425
確認できる	-11.4251
インディ	-11.4252
讃	-11.4252
入れた	-11.4255
駅周辺	-11.4255
が一般的である	-11.4255
ランキングで	-11.4256
ッソ	-11.4258
を回避	-11.4258
の出場	-11.4258
の成立	-11.4259
を対象とした	-11.426
ホス	-11.426
の観点から	-11.426
芦	-11.4262
セリ	-11.4262
責	-11.4262
聖職者	-11.4262
不動	-11.4262
地盤	-11.4263
多用	-11.4264
並び	-11.4265
ä	-11.4265
1928	-11.4266
を加えて	-11.4266
▁1917	-11.4271
クラフト	-11.4272
拍	-11.4272
アルバ	-11.4273
ドライ	-11.4273
踏	-11.4273
モデルは	-11.4274
国会議員	-11.4274
幡	-11.4274
かぶ	-11.4274
イラストレーター	-11.4274
台頭	-11.4275
以降も	-11.4276
が好き	-11.4277
村山	-11.4279
jra	-11.4282
同誌	-11.4282
パレード	-11.4283
部隊を	-11.4285
シェン	-11.4286
旧姓	-11.4286
の映像	-11.4286
断絶	-11.4287
従軍	-11.4287
ウィーク	-11.429
迎撃	-11.429
監修	-11.4291
放送していた	-11.4292
という説	-11.4293
あわせて	-11.4293
婚姻	-11.4294
鉢	-11.4294
バッテリー	-11.4294
どり	-11.4294
免除	-11.4294
コリン	-11.4296
混ぜ	-11.4296
高額	-11.4296
特権	-11.43
▁引退後は	-11.43
役として	-11.4301
も多かった	-11.4302
に再び	-11.4304
を建設する	-11.4304
取れ	-11.4305
とよ	-11.4305
に隣接する	-11.4307
暴動	-11.4307
指標	-11.4307
財団法人	-11.4308
正しく	-11.4308
年金	-11.4308
体内	-11.431
の危機	-11.431
発見され	-11.431
nasa	-11.431
を開き	-11.4312
コリ	-11.4313
先祖	-11.4315
条第	-11.4316
刻まれ	-11.4316
euro	-11.4319
僧侶	-11.432
対岸	-11.4322
ミステリー	-11.4322
につながる	-11.4323
全集	-11.4323
排水	-11.4324
た場合	-11.4324
ヴィッ	-11.4325
条の	-11.4325
宴	-11.4327
とのこと	-11.4327
働く	-11.4327
採取	-11.4327
東京都立	-11.4328
以外では	-11.433
を主張し	-11.433
位置付け	-11.4331
中型	-11.4331
同年の	-11.4332
リーグ優勝	-11.4332
スケジュール	-11.4333
南に	-11.4333
逃	-11.4335
前日	-11.4335
東大	-11.4337
▁sh	-11.4337
san	-11.4338
学区は以下の通りとなる	-11.4338
▁韓国	-11.434
tin	-11.4341
嘉永	-11.4341
.)	-11.4343
フォックス	-11.4344
没収	-11.4345
南端	-11.4346
州都	-11.4346
開発され	-11.4347
遡	-11.4347
入国	-11.4347
1867	-11.4347
似ている	-11.4348
朴	-11.4348
を手に	-11.4349
回る	-11.4349
置換	-11.4349
監督に就任	-11.435
入会	-11.435
ザイ	-11.4352
ムーア	-11.4353
を支持し	-11.4355
▁si	-11.4357
日本国	-11.4357
del	-11.4357
ことはなく	-11.4357
マジ	-11.436
▁po	-11.4361
西端	-11.4363
リット	-11.4363
[[	-11.4364
を送る	-11.4366
ace	-11.4368
ug	-11.4368
サンディエゴ	-11.4369
常務	-11.4369
シチリア	-11.437
挿絵	-11.4372
、1939	-11.4373
樹木	-11.4373
、1936	-11.4374
少なかった	-11.4375
▁たか	-11.4376
帝国の	-11.4376
ランス	-11.4377
]]	-11.4377
のう	-11.4377
ビートルズ	-11.4377
上限	-11.4377
広範囲	-11.4377
プラハ	-11.4378
1929	-11.438
ビルボード	-11.438
除外	-11.4381
を担当し	-11.4381
高速バス	-11.4382
を上げる	-11.4382
単位で	-11.4383
まき	-11.4383
月上旬	-11.4386
を直接	-11.4387
獅子	-11.4387
サッカークラブ	-11.4387
連邦政府	-11.4387
必要があった	-11.4387
虹	-11.4388
を選ぶ	-11.4388
▁アン	-11.4388
ことが明らか	-11.4389
で発生した	-11.4389
ブロードウェイ	-11.439
遂行	-11.4391
甚	-11.4391
末に	-11.4393
っていく	-11.4396
累計	-11.4397
却	-11.4401
外に	-11.4402
試合に出場した	-11.4402
フォーミュラ	-11.4404
ウト	-11.4406
神道	-11.4407
漫才	-11.4409
として活躍した	-11.441
nor	-11.4411
通知	-11.4412
組み立て	-11.4413
を進めた	-11.4414
一面	-11.4414
▁or	-11.4414
る形で	-11.4415
nato	-11.4415
完了した	-11.4415
ソ連の	-11.4415
焼失	-11.4417
討	-11.4418
産出	-11.4419
中尉	-11.4419
ban	-11.4419
1-2	-11.4421
属性	-11.4422
抄	-11.4422
定められている	-11.4425
部門の	-11.4426
アシュ	-11.4428
名人	-11.443
述べ	-11.443
らを	-11.443
lc	-11.4431
行える	-11.4432
出家	-11.4432
製品の	-11.4433
▁もし	-11.4434
麻薬	-11.4435
内容を	-11.4436
750	-11.4438
を行なった	-11.444
停	-11.444
が図られ	-11.4441
お笑い	-11.4443
志向	-11.4444
ないので	-11.4445
永久	-11.4446
認められる	-11.4446
の性質	-11.4446
コモ	-11.4447
が登場した	-11.4448
書物	-11.4448
府中	-11.4449
紹介された	-11.445
1861	-11.4451
であったことから	-11.4453
年度に	-11.4454
cap	-11.4455
つけられた	-11.4455
年代半ば	-11.4455
改定	-11.4456
カシ	-11.4457
アニメ版	-11.4458
を取り入れ	-11.4459
sil	-11.4459
身の	-11.4462
写真家	-11.4462
の壁	-11.4462
漆	-11.4463
一揆	-11.4463
市内に	-11.4463
川村	-11.4463
wo	-11.4465
誘い	-11.4466
に所属している	-11.4466
修士	-11.4469
は極めて	-11.4469
▁1914	-11.4469
大統領の	-11.447
合わせる	-11.447
now	-11.4471
堰	-11.4472
休養	-11.4472
改組	-11.4472
イザ	-11.4472
野外	-11.4473
水野	-11.4473
▁!	-11.4475
と見なされ	-11.4475
発覚	-11.4475
するのが	-11.4475
の頃	-11.4476
舞踊	-11.4476
渡る	-11.4477
デリー	-11.4479
が完成した	-11.4479
賭け	-11.448
回し	-11.4481
特異	-11.4482
観光地	-11.4482
先代	-11.4482
入る	-11.4483
放置	-11.4483
岐	-11.4483
東山	-11.4484
で唯一	-11.4487
を設置する	-11.4487
に仕えた	-11.4487
ow	-11.4489
モニ	-11.449
鉄道は	-11.449
これまでに	-11.4492
近年では	-11.4492
実用化	-11.4496
ばれ	-11.4497
ユーザ	-11.4498
兵庫	-11.4498
sco	-11.4498
威力	-11.4499
書かれ	-11.45
木製	-11.45
の半分	-11.45
郡にあった村	-11.45
社会学	-11.4502
鎌	-11.4502
key	-11.4502
行動を	-11.4502
を捨て	-11.4503
間を	-11.4503
は以下の通りである	-11.4504
高齢者	-11.4504
翌年に	-11.4505
シンガー	-11.4505
分泌	-11.4505
show	-11.4505
rb	-11.4505
小泉	-11.4508
の自宅	-11.4508
プライ	-11.4508
かえ	-11.4508
んでおり	-11.4508
目は	-11.4508
ていき	-11.4512
レナ	-11.4513
公務員	-11.4514
凶	-11.4515
の成功	-11.4515
に多く	-11.4516
を記念して	-11.4517
運送	-11.4519
十六	-11.4521
が誕生した	-11.4522
逃走	-11.4522
多くの場合	-11.4522
モーニング	-11.4522
tsu	-11.4524
出来なかった	-11.4524
md	-11.4524
傾	-11.4526
フィッシュ	-11.4526
ws	-11.4527
重点	-11.4528
あた	-11.4528
との契約	-11.4529
東端	-11.453
▁ka	-11.453
ポケット	-11.4535
代将軍	-11.4537
ロシア帝国	-11.4537
を通過する	-11.4538
ニーズ	-11.4539
メト	-11.454
伊予	-11.454
に昇進	-11.454
してくる	-11.4541
構造の	-11.4542
難しい	-11.4542
大砲	-11.4542
南区	-11.4542
出土	-11.4543
骨格	-11.4543
モデルの	-11.4544
高等学校を経て	-11.4544
後日	-11.4545
質の	-11.4545
for	-11.4546
が成立し	-11.4548
渕	-11.455
潔	-11.4551
ツイン	-11.4552
ホームページ	-11.4554
されるなど	-11.4555
tra	-11.4556
じゃない	-11.4557
いちらん	-11.4558
考える	-11.4558
慢性	-11.4558
水田	-11.4559
番組で	-11.4559
負傷した	-11.456
ani	-11.456
ベースの	-11.4561
大統領は	-11.4561
換	-11.4561
山町	-11.4561
趣旨	-11.4565
擁立	-11.4571
シーズンから	-11.4571
条項	-11.4572
があれば	-11.4574
和泉	-11.4576
郡区	-11.4576
天才	-11.4578
年に発表した	-11.4578
がかかる	-11.4579
▁世界	-11.4579
本拠	-11.458
インディーズ	-11.4581
を備え	-11.4581
、1937	-11.4582
抽出	-11.4582
硬貨	-11.4583
_4	-11.4583
ツキ	-11.4583
しまい	-11.4584
蝶	-11.4584
学部教授	-11.4584
▁シーズン	-11.4585
の良い	-11.4585
日本の実業家	-11.4586
計画が	-11.4587
計画を	-11.4588
一種の	-11.4588
表題曲	-11.4589
菩薩	-11.4591
液晶	-11.4592
組織の	-11.4592
王女	-11.4593
能力を	-11.4595
0°	-11.4595
ヶ丘	-11.4595
ケープ	-11.4595
オルガン	-11.4595
ッケ	-11.4595
ez	-11.4597
cb	-11.4601
防空	-11.4602
成熟	-11.4603
ロードレース	-11.4604
伝統的に	-11.4604
尊敬	-11.4604
探検	-11.4605
岡本	-11.4606
ヤンキース	-11.4606
東海道	-11.4608
ところを	-11.4609
アベニュー	-11.461
総数	-11.461
を演じ	-11.461
疎	-11.4611
新羅	-11.4612
みた	-11.4612
内装	-11.4612
麻雀	-11.4612
セルフ	-11.4612
ャ	-11.4613
で開催される	-11.4613
寄せ	-11.4614
本大会	-11.4615
つつあった	-11.4615
借り	-11.4616
文学者	-11.4616
名門	-11.4617
外の	-11.4617
を収録	-11.4618
欧州連合	-11.4618
リリースした	-11.4619
の三男	-11.462
晶	-11.4621
キャッシュ	-11.4621
レッジ	-11.4621
大地	-11.4622
読書	-11.4623
最高速度	-11.4623
ニコラ	-11.4624
の聖	-11.4624
奪三振	-11.4626
の有無	-11.4626
三人	-11.4627
設置され	-11.4628
俳優の	-11.4629
ハロ	-11.463
カルト	-11.4632
国旗	-11.4633
マーシャル	-11.4635
に所属した	-11.4635
に大	-11.4635
に分布する	-11.4636
遠藤	-11.4637
透	-11.4637
停留場	-11.4639
変わらない	-11.4639
解説者	-11.4639
会い	-11.4639
1924	-11.464
同局	-11.4641
を集めて	-11.4641
値は	-11.4641
リフト	-11.4642
宗家	-11.4643
築かれ	-11.4643
一次	-11.4646
に属している	-11.4647
翌年には	-11.4648
外れ	-11.4649
活動は	-11.4649
枚目のアルバム	-11.465
会で	-11.465
ham	-11.465
課税	-11.465
センス	-11.4651
津田	-11.4652
の発見	-11.4653
アルト	-11.4654
伝え	-11.4655
の内部	-11.4655
井戸	-11.4656
にとどまった	-11.4657
撃ち	-11.4658
ess	-11.4659
水面	-11.4659
社内	-11.4659
▁真	-11.4659
制定された	-11.466
小沢	-11.466
▁school	-11.4661
作中で	-11.4661
神奈川県横浜市	-11.4661
ニウム	-11.4662
不安定	-11.4662
を認めた	-11.4663
サール	-11.4664
採用され	-11.4664
冷戦	-11.4664
もらい	-11.4664
住み	-11.4665
活動を開始	-11.4665
▁windows	-11.4666
に分類され	-11.4667
口に	-11.4668
いったん	-11.4668
志願	-11.467
ステレオ	-11.467
を完成させ	-11.4672
語は	-11.4672
とも呼ばれ	-11.4673
のメイン	-11.4674
.,	-11.4674
処置	-11.4675
ラッセル	-11.4676
歌謡	-11.4676
れて	-11.4678
容疑で	-11.4678
内陸	-11.4678
▁この結果	-11.4679
互	-11.4679
ウィング	-11.4679
であったという	-11.468
に分けられる	-11.468
破損	-11.468
を得ている	-11.4681
年代にかけて	-11.4683
の廃止	-11.4683
報告されている	-11.4684
と主張し	-11.4684
1865	-11.4689
内部に	-11.469
現行	-11.469
支配下	-11.4691
させるため	-11.4691
遺族	-11.4692
、1938	-11.4693
外来	-11.4695
立川	-11.4696
博士課程	-11.4696
を必要とし	-11.4697
州立大学	-11.4697
▁ホーム	-11.4698
アレン	-11.4698
空手	-11.47
バナ	-11.47
招	-11.4701
年夏に	-11.4701
向かい	-11.4702
form	-11.4704
シュテ	-11.4705
過剰	-11.4705
勾配	-11.4706
近年は	-11.4706
ニコライ	-11.4706
喜び	-11.4707
スラヴ	-11.4708
を通り	-11.4709
ざん	-11.471
スワ	-11.4711
mix	-11.4713
仙台市	-11.4717
の一角	-11.4717
への参加	-11.4719
より発売された	-11.4719
屋の	-11.4719
の練習	-11.4719
の中心部	-11.4722
ハマ	-11.4722
zi	-11.4723
ぞく	-11.4724
電撃	-11.4724
キッド	-11.4725
これ以降	-11.4725
予定だった	-11.4725
の方針	-11.4727
があったため	-11.4727
の治世	-11.4729
内閣総理大臣	-11.4729
"-	-11.473
ひょう	-11.4731
ドラマー	-11.4733
-』	-11.4733
トーン	-11.4735
議会は	-11.4735
建物の	-11.4735
楽天	-11.4737
の武将	-11.4739
yl	-11.474
諸侯	-11.4741
として参加	-11.4742
発展し	-11.4743
を設置した	-11.4743
tur	-11.4744
シュル	-11.4744
転写	-11.4744
一人で	-11.4746
ale	-11.4746
リナ	-11.4746
のうちに	-11.4747
田辺	-11.4747
信徒	-11.4748
に従事	-11.4748
を始めとする	-11.4749
をめぐって	-11.4749
中核	-11.475
グマ	-11.4751
▁pi	-11.4751
体が	-11.4752
極東	-11.4752
福岡市	-11.4752
フラッシュ	-11.4753
に過ぎない	-11.4753
の主力	-11.4753
を備える	-11.4754
さが	-11.4755
アメ	-11.4755
ライブラリ	-11.4756
早川	-11.4757
天国	-11.4759
他国	-11.4765
元気	-11.4766
の時代に	-11.4766
教諭	-11.4767
クマ	-11.4767
出会い	-11.4768
を多数	-11.4769
巡回	-11.4769
反面	-11.4769
攻撃を	-11.477
造成	-11.477
が設けられた	-11.4771
連装	-11.4772
スーツ	-11.4773
▁よって	-11.4774
エアロ	-11.4774
進撃	-11.4774
欧	-11.4775
背負	-11.4776
オットー	-11.4776
自由主義	-11.4776
祭神	-11.4777
ラインナップ	-11.4777
産駒	-11.4778
▁逆に	-11.4778
真空	-11.4778
の登場人物	-11.4779
ーブ	-11.478
存在しない	-11.478
レンタル移籍	-11.4781
有人	-11.4782
出血	-11.4783
特番	-11.4783
にしか	-11.4783
経済学者	-11.4785
騒	-11.4786
武家	-11.4786
正室	-11.4787
含め	-11.4787
!』(	-11.4787
ヴィッチ	-11.4788
の判断	-11.4788
石を	-11.4789
店の	-11.4789
立憲	-11.4791
ドナルド	-11.4791
特色	-11.4793
国営	-11.4793
コーポレーション	-11.4794
無料で	-11.4795
:)	-11.4795
ヶ谷	-11.4795
京成	-11.4798
▁お	-11.4799
なが	-11.4799
ボーイズ	-11.4799
des	-11.4799
に送り	-11.4801
田原	-11.4803
難易度	-11.4803
酒井	-11.4803
娯楽	-11.4807
国際大会	-11.4807
プレミア	-11.4808
の指示	-11.4809
作られ	-11.4813
日本初の	-11.4813
明治維新	-11.4813
bor	-11.4814
ざわ	-11.4814
0.2	-11.4814
優勝者	-11.4814
鑑定	-11.4816
の実施	-11.4816
括弧	-11.4816
島で	-11.4816
ロジー	-11.4817
シアトル	-11.4817
オッ	-11.4818
慮	-11.4819
基幹	-11.4819
ざい	-11.4819
癒	-11.4822
泣	-11.4823
が実施され	-11.4823
ami	-11.4824
シリ	-11.4824
で生まれ	-11.4826
船橋	-11.4827
ゴジラ	-11.4827
西鉄	-11.4828
痛み	-11.4828
月時点で	-11.4829
歩く	-11.483
ich	-11.483
ホモ	-11.483
友達	-11.4831
大社	-11.4832
山内	-11.4832
築城	-11.4832
ことを示す	-11.4832
牌	-11.4833
はじめて	-11.4833
に進み	-11.4834
投票で	-11.4834
の行動	-11.4834
用いた	-11.4835
center	-11.4835
入賞	-11.4835
インストール	-11.4836
クィ	-11.4838
ことについて	-11.4838
大関	-11.4839
職を	-11.484
撤回	-11.484
桑	-11.4841
誘拐	-11.4842
くま	-11.4842
-21	-11.4843
真っ	-11.4843
クリーク	-11.4844
の対	-11.4844
たものである	-11.4845
寸	-11.4845
隙	-11.4847
ダラ	-11.4847
ッサー	-11.4847
還	-11.4847
追悼	-11.4848
zu	-11.4848
大阪府大阪市	-11.4849
ウォール	-11.4849
好評	-11.485
軌	-11.4855
に強い	-11.4855
ino	-11.4855
などといった	-11.4855
池袋	-11.4856
マサチューセッツ州	-11.4856
につれて	-11.4858
深さ	-11.4858
リフ	-11.4859
に昇格した	-11.4859
狙い	-11.4859
片側	-11.4861
スプリング	-11.4862
鰭	-11.4862
ブレー	-11.4863
芸能界	-11.4863
1866	-11.4866
予言	-11.4866
発車	-11.4868
個性	-11.487
を制し	-11.4871
ツァー	-11.4872
使われる	-11.4872
フォーラム	-11.4873
待機	-11.4874
▁米国	-11.4874
ことに成功した	-11.4875
アルミニウム	-11.4878
ストレス	-11.4879
役人	-11.4879
発現	-11.4879
外国語	-11.488
ik	-11.4881
号を	-11.4881
履	-11.4882
その際に	-11.4882
まれた	-11.4882
替わり	-11.4884
1.8	-11.4885
ないが	-11.4885
めん	-11.4886
成長した	-11.4886
が導入され	-11.4887
下関	-11.4887
ura	-11.4888
位と	-11.4889
捕ま	-11.489
▁近年では	-11.489
テレビシリーズ	-11.489
ものとなっている	-11.4891
ロップ	-11.4891
放映された	-11.4891
ture	-11.4893
ソ連軍	-11.4893
の採用	-11.4894
▁母は	-11.4895
野町	-11.4895
本項	-11.4895
分ける	-11.4895
十八	-11.4896
ぼく	-11.4897
公使	-11.4898
学士	-11.49
との間の	-11.49
▁|	-11.4901
年に設立された	-11.4902
の主題歌	-11.4902
city	-11.4903
窮	-11.4904
▁最終	-11.4907
マンの	-11.4907
を書く	-11.491
ピオ	-11.4911
箱根	-11.4911
と戦う	-11.4911
方式で	-11.4911
アーキテクチャ	-11.4911
活躍し	-11.4911
発祥	-11.4912
川が	-11.4912
ニッポン放送	-11.4912
アドルフ	-11.4913
さつ	-11.4914
転落	-11.4914
ふる	-11.4915
ball	-11.4916
が出来	-11.4916
直営	-11.4916
あらかじめ	-11.4917
ドラー	-11.4918
記録されている	-11.4918
狩	-11.4918
不十分	-11.4919
センサー	-11.4919
に隣接し	-11.492
樹脂	-11.4922
最近では	-11.4922
日午後	-11.4923
南は	-11.4923
ky	-11.4924
影響を与え	-11.4924
大蔵	-11.4925
イオ	-11.4926
xx	-11.4929
ではないか	-11.4929
にならない	-11.4929
爆破	-11.4929
を提供し	-11.4932
usa	-11.4933
出羽	-11.4934
することがある	-11.4936
によるものである	-11.4937
爾	-11.4938
とも言われる	-11.4939
カウンター	-11.494
に反対する	-11.494
突撃	-11.4941
踏切	-11.4943
窯	-11.4943
に合格	-11.4944
切手	-11.4944
と共同で	-11.4945
樹立	-11.495
同大学	-11.4952
勧め	-11.4953
例は	-11.4953
内部の	-11.4955
日からは	-11.4955
イソ	-11.4957
(2011	-11.4958
愚	-11.4959
関係を	-11.496
駅構内	-11.496
サスペンション	-11.496
変異	-11.4961
触媒	-11.4961
を投じ	-11.4961
出身の元	-11.4961
50%	-11.4962
歓迎	-11.4962
副社長	-11.4963
大夫	-11.4963
と同じように	-11.4964
割り当てられ	-11.4964
を読み	-11.4966
もたらされ	-11.4968
該当	-11.4969
の北側	-11.497
されることがある	-11.4971
の始まり	-11.4971
が広く	-11.4972
は本作	-11.4973
虐待	-11.4974
種族	-11.4976
生地	-11.4976
すり	-11.4977
を受け入れ	-11.4977
位を記録	-11.4979
ish	-11.498
に専念	-11.498
コンスタン	-11.4984
1,0	-11.4985
学院大学	-11.4985
▁1912	-11.4985
射程	-11.4986
整備された	-11.4988
タバコ	-11.4989
当事者	-11.4989
デザインは	-11.499
八重	-11.499
廣	-11.4993
実際	-11.4993
主砲	-11.4993
音楽祭	-11.4993
チェンジ	-11.4993
ロワ	-11.4994
に分け	-11.4995
集約	-11.4996
穀物	-11.4997
アサ	-11.4997
祝日	-11.4997
▁この年は	-11.4998
ラート	-11.4998
を否定し	-11.4999
の責任	-11.4999
にかかる	-11.5
有力な	-11.5
京都大学	-11.5001
初期に	-11.5002
base	-11.5002
▁白	-11.5003
強さ	-11.5003
と推定されている	-11.5006
アンドリュー	-11.5006
企	-11.5007
を製造	-11.5007
加盟国	-11.5009
に陥った	-11.5009
寅	-11.501
に行き	-11.501
渋	-11.5012
展覧会	-11.5013
単体	-11.5014
講習	-11.5014
play	-11.5015
▁【	-11.5015
じんじゃ	-11.5015
ロシア連邦	-11.5015
を見つけ	-11.5016
交差	-11.5016
ッチャー	-11.5016
封鎖	-11.5018
見せ	-11.5018
が原因で	-11.5019
は当時の	-11.5019
将軍の	-11.5019
ヤマト	-11.502
選択肢	-11.5022
藍	-11.5023
型式	-11.5024
駐在	-11.5025
に見舞われ	-11.5025
サント	-11.5025
vin	-11.5025
郵政	-11.5026
宣教師	-11.5026
フロア	-11.5028
集まって	-11.5029
の法則	-11.503
の模様	-11.503
侯爵	-11.503
エコ	-11.5031
リブ	-11.5031
国家の	-11.5031
屋外	-11.5032
取り扱う	-11.5033
マネ	-11.5033
することが可能	-11.5034
位置に	-11.5036
この時期	-11.5038
で行われ	-11.5038
固体	-11.5039
にあたった	-11.5039
ドウ	-11.504
ソナタ	-11.504
コパ	-11.5041
ウマ	-11.5041
者もいる	-11.5042
mark	-11.5043
▁血液型	-11.5043
失われ	-11.5045
組成	-11.505
を支える	-11.505
シングルス	-11.5051
異なった	-11.5051
亜科	-11.5051
○○	-11.5052
アルファ	-11.5052
に行われる	-11.5053
ンゲン	-11.5053
105	-11.5054
センチ	-11.5054
大輔	-11.5056
マイアミ	-11.5057
グン	-11.5057
診療	-11.5057
行政区	-11.5057
とは別	-11.506
を超えて	-11.506
煙突	-11.506
ホラー	-11.506
▁ロシア	-11.5061
ラング	-11.5061
白石	-11.5062
下野	-11.5062
が良い	-11.5063
酒造	-11.5063
造形	-11.5064
の時に	-11.5064
左岸	-11.5064
npo	-11.5065
ライト級	-11.5066
▁字は	-11.5067
できるようになった	-11.5067
主翼	-11.5068
から離れ	-11.5068
予定されていた	-11.5069
▁プロ	-11.5069
拡散	-11.5069
に出て	-11.507
スクエア	-11.507
1,2	-11.5072
炭鉱	-11.5072
rus	-11.5073
残した	-11.5073
ローマ帝国	-11.5074
ビオ	-11.5074
似た	-11.5075
選帝侯	-11.5076
松浦	-11.5076
"、"	-11.5077
首席	-11.5078
の略	-11.5078
水産	-11.5078
ジェイムズ	-11.5078
プライベート	-11.5078
mas	-11.5079
医科大学	-11.5081
撮影された	-11.5081
消化	-11.5082
に変更され	-11.5082
摂政	-11.5082
を背景に	-11.5082
pd	-11.5082
ひがし	-11.5083
元来	-11.5083
赤坂	-11.5085
に移転した	-11.5085
アムステルダム	-11.5086
年公開の	-11.5086
重臣	-11.509
歩き	-11.509
使用していた	-11.509
宝暦	-11.5091
トは	-11.5091
厚生労働省	-11.5092
揃え	-11.5092
誘致	-11.5092
ことが可能	-11.5094
1927	-11.5095
ディーン	-11.5095
フレデリック	-11.5095
を導入した	-11.5096
wiki	-11.5097
仕上げ	-11.5097
金剛	-11.5097
都市の	-11.5098
党員	-11.5098
歩兵第	-11.5099
五十	-11.51
に拠れば	-11.5103
に代表される	-11.5104
イグ	-11.5104
ire	-11.5104
起こした	-11.5105
▁nhk	-11.5106
カメ	-11.5106
台湾の	-11.5108
胞	-11.5108
排気	-11.5109
亜種	-11.511
文部省	-11.5111
長期間	-11.5114
ゲリラ	-11.5115
都市である	-11.5116
で死去した	-11.5116
コーラ	-11.5116
ブラジルの	-11.5117
アルバニア	-11.5118
捕食	-11.5118
に興味	-11.5119
などによる	-11.512
の続編	-11.5121
ヵ月	-11.5122
示された	-11.5123
ペドロ	-11.5124
最速	-11.5124
精神的	-11.5125
1923	-11.5125
free	-11.5126
に発生した	-11.5126
急性	-11.5127
途上	-11.5127
ログ	-11.5129
▁all	-11.5129
シャトル	-11.513
っても	-11.513
古代の	-11.5131
町田	-11.5132
ブリン	-11.5132
意向	-11.5133
宰相	-11.5134
gra	-11.5136
ライフル	-11.5136
を廃止し	-11.5138
札幌市	-11.5138
決勝では	-11.5146
模	-11.5147
同年に	-11.5147
バーデン	-11.5147
混雑	-11.5148
japan	-11.5148
高性能	-11.5149
▁そこに	-11.5149
デヴィッド	-11.5149
by	-11.5153
大都市	-11.5153
読む	-11.5153
で活躍	-11.5157
幌	-11.5157
モントリオール	-11.5157
峯	-11.5157
ることなく	-11.5158
喜劇	-11.5159
落とし	-11.5159
年の間	-11.516
島は	-11.5161
曹操	-11.5161
の大半は	-11.5162
が導入された	-11.5162
mal	-11.5163
殿堂入り	-11.5164
霞	-11.5165
電磁	-11.5166
魯	-11.5167
けた	-11.5167
系譜	-11.5168
コラ	-11.5168
判定勝ち	-11.5169
▁同じく	-11.5169
sis	-11.5169
描く	-11.517
マニラ	-11.517
個人の	-11.5172
die	-11.5172
クライアント	-11.5173
台北	-11.5173
ライアン	-11.5173
灰色	-11.5174
ことはできなかった	-11.5174
分野の	-11.5175
にその	-11.5175
実に	-11.5176
少なく	-11.5179
活動家	-11.518
嚢	-11.518
1925	-11.5181
sky	-11.5182
スタイン	-11.5182
ペンシルベニア州	-11.5183
に成功	-11.5184
ボスニア	-11.5185
亡くなる	-11.5186
、1935	-11.5187
総長	-11.5188
北九州	-11.5188
会派	-11.5189
カニ	-11.5189
しお	-11.5191
▁ゆう	-11.5191
改宗	-11.5191
に囲まれ	-11.5191
アレクサンダー	-11.5192
説明する	-11.5192
などでも	-11.5193
に放送された	-11.5194
採用されている	-11.5196
生育	-11.5197
と呼ばれるようになった	-11.5197
閑	-11.5197
順番	-11.5198
シュト	-11.5198
守り	-11.5199
のトップ	-11.5199
project	-11.5199
喰	-11.5199
にのみ	-11.5201
振り返	-11.5201
に就く	-11.5201
"("	-11.5202
を差し	-11.5202
awa	-11.5202
愛国	-11.5203
の精神	-11.5203
1850	-11.5203
日本大学	-11.5204
ada	-11.5204
▁100	-11.5205
るための	-11.5205
に留まり	-11.5206
リントン	-11.5207
日本語版	-11.5207
原発	-11.5208
レックス	-11.5209
フェス	-11.5209
那須	-11.521
低減	-11.5211
るのは	-11.5211
シーズン終了後	-11.5211
博覧会	-11.5211
歳没	-11.5212
の推薦	-11.5212
退官	-11.5214
をかける	-11.5214
ラーズ	-11.5215
こい	-11.5215
採択	-11.5215
を訪ね	-11.5217
以南	-11.5217
エイト	-11.5217
部員	-11.5218
本番組	-11.5218
指向	-11.5219
▁tra	-11.5219
促	-11.5219
遅延	-11.522
kin	-11.522
スタメン	-11.5221
を拒否した	-11.5221
を止め	-11.5222
あわせ	-11.5222
二代目	-11.5222
汎用	-11.5223
マイクロソフト	-11.5224
撫	-11.5225
融資	-11.5225
うえで	-11.5226
湿地	-11.5227
ウイ	-11.5227
一宮	-11.5228
を採用する	-11.5228
を演じる	-11.523
を遂げ	-11.523
が発見され	-11.523
俳句	-11.5231
行われており	-11.5231
暴走	-11.5231
的にも	-11.5231
で使用された	-11.5231
が置かれた	-11.5233
傾向がある	-11.5233
シリーズは	-11.5233
book	-11.5234
鉄道路線	-11.5235
接続する	-11.5236
mil	-11.5237
ys	-11.5238
癖	-11.5238
巴	-11.5238
を発し	-11.5239
余裕	-11.5241
終了後に	-11.5242
クルーズ	-11.5242
左手	-11.5243
幕下	-11.5243
に始まる	-11.5243
の先端	-11.5243
製作の	-11.5243
戦時中	-11.5244
圓	-11.5244
stra	-11.5244
召集	-11.5246
ホウ	-11.5247
の必要性	-11.5247
たとえ	-11.5248
在任	-11.525
予告	-11.525
三角形	-11.5251
武道	-11.5252
首を	-11.5257
かせる	-11.5257
優勢	-11.5258
ナッ	-11.5258
の移動	-11.5258
収束	-11.5259
レック	-11.5259
伊賀	-11.5259
石原	-11.5259
を想定し	-11.526
を終了した	-11.5262
量を	-11.5262
お前	-11.5263
近縁	-11.5263
器具	-11.5263
エチオピア	-11.5263
mv	-11.5264
湘南	-11.5265
償	-11.5265
ないよう	-11.5265
うこと	-11.5266
ピル	-11.5267
ティーン	-11.5268
奇跡	-11.5268
委	-11.5268
募	-11.5269
研究センター	-11.5269
ori	-11.5269
樺太	-11.527
ビート	-11.527
、1933	-11.527
と違い	-11.527
~	-11.5271
文久	-11.5273
風俗	-11.5273
の目的	-11.5274
高島	-11.5274
はずの	-11.5276
を完全に	-11.5276
喧嘩	-11.5277
は無かった	-11.5277
トイ	-11.5278
ッケン	-11.5278
社から	-11.5278
の軍人	-11.528
半導体	-11.5281
じた	-11.5281
気圧	-11.5282
を実施し	-11.5283
複製	-11.5283
が確認された	-11.5283
避	-11.5283
塗り	-11.5284
を寄せ	-11.5285
されたものである	-11.5286
それ以上	-11.5287
江戸時代に	-11.5287
ウイング	-11.5289
を利用し	-11.5289
▁ra	-11.5289
ぐる	-11.529
セントルイス	-11.529
cor	-11.529
同一の	-11.5291
ホーン	-11.5291
歴史的な	-11.5291
に於いて	-11.5293
に着手	-11.5293
退学	-11.5294
仁親王	-11.5295
を描き	-11.5295
納め	-11.5295
ホーク	-11.5296
ホスト	-11.5298
抽象	-11.5299
チーズ	-11.5299
game	-11.5299
事件で	-11.53
桓	-11.5302
を食べ	-11.5304
と称して	-11.5304
展開する	-11.5304
と感じ	-11.5305
内田	-11.5306
エレクトリック	-11.5306
車両が	-11.5307
ome	-11.5308
が進んだ	-11.531
テュ	-11.531
を通過し	-11.531
ミア	-11.531
源流	-11.5311
の改善	-11.5311
知られており	-11.5311
ラテン	-11.5311
ることもある	-11.5311
担当者	-11.5312
演出家	-11.5312
ニンテンドー	-11.5312
ブレン	-11.5313
ータ	-11.5316
西は	-11.5317
を継承した	-11.5317
記した	-11.5318
たった	-11.5319
の町名	-11.5319
普	-11.532
みたい	-11.532
誰か	-11.532
西部の	-11.5321
450	-11.5322
の支配下	-11.5322
ney	-11.5325
ios	-11.5325
戦果	-11.5326
の名称で	-11.5326
‐	-11.5328
▁""	-11.5328
構造物	-11.533
kt	-11.533
することができた	-11.533
と表記される	-11.5331
に使用された	-11.5331
木曜	-11.5332
暴行	-11.5332
危	-11.5334
が担当した	-11.5334
場合でも	-11.5336
跡地に	-11.5338
▁new	-11.5338
メイド	-11.5338
傘	-11.5338
総選挙で	-11.5338
で演奏	-11.5338
められ	-11.534
有限会社	-11.5341
あきら	-11.5341
に合わせ	-11.5342
運行している	-11.5343
工科大学	-11.5345
作成された	-11.5346
タク	-11.5346
市から	-11.5348
尚書	-11.5348
▁1910	-11.5348
尽力	-11.5348
三田	-11.5349
変更された	-11.5349
梅田	-11.5349
解説する	-11.5351
震災	-11.5353
発の	-11.5353
偉	-11.5353
件の	-11.5355
カタログ	-11.5356
中原	-11.5356
凍結	-11.5356
平原	-11.5356
とされており	-11.5357
を飾った	-11.5358
紋章	-11.5359
進路	-11.5359
が発足	-11.5359
蒼	-11.5359
アイヌ	-11.536
吊り	-11.5361
例もある	-11.5362
ceo	-11.5363
の発行	-11.5363
ッリ	-11.5363
はるかに	-11.5364
とされるが	-11.5365
転送	-11.5365
、1932	-11.5366
旋律	-11.5369
ory	-11.5369
6,000	-11.5369
多様体	-11.537
方面から	-11.5372
引退後	-11.5372
リッ	-11.5372
』・『	-11.5373
日本国外	-11.5374
を記録する	-11.5375
武将	-11.5375
川は	-11.5376
ash	-11.5377
現在に至る	-11.5377
任官	-11.5382
プトン	-11.5383
も多数	-11.5384
企業が	-11.5386
ビング	-11.5386
初年度	-11.5386
うん	-11.5386
富田	-11.5387
増殖	-11.5388
ひこ	-11.5388
航空隊	-11.5388
青色	-11.5388
万部	-11.5388
暮	-11.5389
幸せ	-11.5389
鳥居	-11.5391
20%	-11.5391
今日では	-11.5392
全体を	-11.5392
と第	-11.5392
が使用されている	-11.5393
島田	-11.5393
犬種	-11.5393
time	-11.5394
宝石	-11.5394
ユニフォーム	-11.5395
右岸	-11.5395
hc	-11.5398
た際に	-11.54
ローマの	-11.54
鋳造	-11.54
圧倒的な	-11.5401
頁	-11.5401
現地の	-11.5401
ヨーゼフ	-11.5402
やる	-11.5402
発電機	-11.5403
東部の	-11.5403
小田急	-11.5403
民放	-11.5405
演算	-11.5406
痕跡	-11.5407
ことだった	-11.5407
契約を	-11.5407
の確保	-11.5408
定め	-11.5408
ミックス	-11.5408
ざき	-11.5409
3.0	-11.5409
たくさん	-11.5409
街の	-11.5409
を試みた	-11.5409
じて	-11.5411
駄	-11.5412
集結	-11.5412
ハイブリッド	-11.5413
副作用	-11.5413
ベネズエラ	-11.5413
オウ	-11.5413
本堂	-11.5414
しら	-11.5415
尾張	-11.5416
一度も	-11.5416
を避け	-11.5416
をなす	-11.5417
本山	-11.5417
管理者	-11.5417
東武	-11.5417
ニシ	-11.5417
フスキー	-11.5417
ニズム	-11.5419
ことが判明した	-11.5419
研究室	-11.5419
同時期	-11.5419
エンジンを	-11.5422
古巣	-11.5424
押さえ	-11.5425
知り合い	-11.5425
ポス	-11.5426
地上駅	-11.5427
白河	-11.5427
町長	-11.5427
で発売された	-11.5428
安藤	-11.5428
の大部分は	-11.5428
疑惑	-11.5428
生体	-11.5431
に接し	-11.5431
徴兵	-11.5431
中枢	-11.5431
さなかった	-11.5432
目黒	-11.5432
田舎	-11.5433
ければ	-11.5433
作られている	-11.5433
ジョニー	-11.5434
萬	-11.5434
万ドルの	-11.5434
を行わ	-11.5435
政権の	-11.5437
を選んだ	-11.5439
造られた	-11.544
アーツ	-11.544
を実施する	-11.544
公開されている	-11.5441
育つ	-11.5443
バルト	-11.5443
を持っており	-11.5444
王家	-11.5444
イギリス人	-11.5446
ろうと	-11.5446
支払い	-11.5447
地質	-11.5447
励	-11.5448
構え	-11.545
スロット	-11.5451
を結んだ	-11.5452
世界各国	-11.5453
小児	-11.5453
カルチャー	-11.5453
野球部	-11.5453
の葉	-11.5453
の為に	-11.5454
アバ	-11.5454
radio	-11.5455
mhz	-11.5455
のほとんどは	-11.5456
ホルン	-11.5456
それ以外	-11.5457
上にある	-11.5457
強盗	-11.5458
グローブ	-11.5459
ラード	-11.546
と推定される	-11.5461
に適	-11.5462
ばね	-11.5462
地である	-11.5463
勝った	-11.5464
ぱ	-11.5465
鋳	-11.5465
シム	-11.5465
病死	-11.5466
月曜日	-11.5466
警官	-11.5466
世界初の	-11.5467
握	-11.5468
nec	-11.547
に限り	-11.547
などである	-11.5471
対応する	-11.5471
ささ	-11.5473
門の	-11.5474
仕掛け	-11.5475
依然として	-11.5476
中国共産党	-11.5476
してしまい	-11.5477
ったもの	-11.5477
が入った	-11.5478
が約	-11.5478
普通列車	-11.5479
にも参加	-11.548
細かい	-11.548
学生時代	-11.5481
の提案	-11.5482
ケイン	-11.5483
ルネサンス	-11.5484
設置されている	-11.5484
記載する	-11.5484
の末に	-11.5484
敗と	-11.5485
ator	-11.5486
メンバーとして	-11.5487
を守るため	-11.5487
年前の	-11.5487
船が	-11.5491
原爆	-11.5491
市議会	-11.5491
末期の	-11.5492
バブル	-11.5492
乗用車	-11.5492
塩基	-11.5494
▁父親は	-11.5496
に設置されている	-11.5497
放った	-11.5498
ッラ	-11.5499
負荷	-11.5499
▁can	-11.5499
を破って	-11.5499
ってしまった	-11.5499
直流	-11.55
与え	-11.55
する者	-11.55
無償	-11.5501
のうちの	-11.5501
リーフ	-11.5502
を任され	-11.5503
は以下のとおり	-11.5503
ニウス	-11.5505
日本共産党	-11.5506
嘘	-11.5506
ヨシ	-11.5508
漏れ	-11.5509
はっきり	-11.551
平地	-11.551
日本書紀	-11.551
伸びる	-11.551
封入	-11.5511
輸送船	-11.5514
南下	-11.5514
н	-11.5514
バグ	-11.5514
に統合され	-11.5516
を模した	-11.5517
開かれた	-11.5517
明日	-11.5517
出身地	-11.5518
と並ぶ	-11.552
インテル	-11.5521
けば	-11.5521
発掘調査	-11.5522
親会社	-11.5524
アイスランド	-11.5525
日本の漫画家	-11.5526
初日	-11.5526
山梨	-11.5526
揺れ	-11.5527
テオ	-11.5528
の手紙	-11.5528
に出た	-11.5529
要員	-11.5529
を帯び	-11.553
ダウ	-11.5531
警報	-11.5531
シアン	-11.5531
迎えた	-11.5531
鴻	-11.5532
チェスター	-11.5535
一般化	-11.5535
氏と	-11.5536
としても活動	-11.5536
ニュータウン	-11.5536
ズー	-11.5538
顔を	-11.5538
戸田	-11.5538
エルサレム	-11.554
シオン	-11.5542
エーカー	-11.5542
を破壊し	-11.5542
トルク	-11.5544
三大	-11.5546
の持つ	-11.5546
取り入れ	-11.5546
円盤	-11.5547
艦隊の	-11.5547
int	-11.5547
を通って	-11.5548
終了する	-11.555
を行なう	-11.555
1926	-11.555
男は	-11.5552
数回	-11.5552
ついて	-11.5552
見学	-11.5554
スティー	-11.5554
オーク	-11.5556
楚	-11.5556
年に発売された	-11.5556
川に	-11.5557
▁以下に	-11.5557
から東	-11.5557
カンボジア	-11.5558
考えられ	-11.5558
音が	-11.556
準々決勝	-11.556
▁近年は	-11.5563
泳	-11.5565
を入れる	-11.5565
月末に	-11.5567
ルドルフ	-11.5568
多項式	-11.5568
バレ	-11.5569
クロン	-11.5569
構造は	-11.5569
会社が	-11.5569
が生まれ	-11.557
受け継がれ	-11.557
系統の	-11.5573
続行	-11.5574
クモ	-11.5576
による日本の漫画作品	-11.5576
はわずか	-11.5577
的存在	-11.5577
されたのは	-11.5577
などを歴任	-11.5577
失敗した	-11.5578
巡礼	-11.5578
〇	-11.5578
腹部	-11.5578
互換性	-11.5578
議会の	-11.5579
意欲	-11.5579
脂肪	-11.5581
に際しては	-11.5582
誇り	-11.5583
進められ	-11.5583
wii	-11.5583
長時間	-11.5584
ある日	-11.5584
シリーズでは	-11.5584
西区	-11.5586
荒廃	-11.5586
パラメータ	-11.5586
幹線	-11.5587
を刊行	-11.5589
堤防	-11.5589
地方裁判所	-11.559
eng	-11.5591
局所	-11.5591
と考えられ	-11.5591
ben	-11.5593
ターズ	-11.5593
と異なる	-11.5593
の間では	-11.5594
スロバキア	-11.5594
家を	-11.5595
争う	-11.5597
だし	-11.5597
衰え	-11.5598
平定	-11.5599
にもなった	-11.5599
レポート	-11.56
佐伯	-11.56
となること	-11.5601
ストローク	-11.5602
▁これに	-11.5604
ハット	-11.5606
1848	-11.561
記されている	-11.561
ニックネーム	-11.5611
big	-11.5611
入植	-11.5613
1.4	-11.5613
を購入し	-11.5615
のテーマ	-11.5616
を開発した	-11.5617
で優勝した	-11.5617
御用	-11.5618
サンクトペテルブルク	-11.562
したことにより	-11.5621
ジョイ	-11.5621
熱心	-11.5622
引き受け	-11.5622
城壁	-11.5622
火器	-11.5623
浴び	-11.5623
正式名称	-11.5624
越え	-11.5625
を脱	-11.5625
手段として	-11.5625
親交	-11.5627
に相当	-11.5627
らによって	-11.5628
最盛期	-11.5628
香り	-11.563
古来	-11.5631
に携わる	-11.5631
発見されている	-11.5631
世界各地	-11.5634
顎	-11.5635
ピク	-11.5636
グラント	-11.5636
破壊され	-11.5636
レスラー	-11.5637
幼い	-11.5638
参議院議員	-11.5639
放送され	-11.564
チョン	-11.5641
dan	-11.5644
埋	-11.5644
山麓	-11.5645
大森	-11.5645
くなった	-11.5645
思う	-11.5646
ようになっていた	-11.5646
据え	-11.5646
の一人である	-11.5648
シンボル	-11.5649
は自分の	-11.5649
キングス	-11.565
sv	-11.5651
失脚	-11.5653
既存	-11.5653
ラテン文字	-11.5654
止ま	-11.5654
選挙では	-11.5654
釈迦	-11.5655
することなく	-11.5655
かれる	-11.5656
故に	-11.5656
ハワード	-11.5656
されることが多い	-11.5657
マナ	-11.5657
ポロ	-11.5657
を前に	-11.5658
を断念	-11.5658
と名付けられた	-11.5659
という意味で	-11.5659
ビック	-11.5659
2-1	-11.566
川上	-11.566
トキ	-11.5661
ケリー	-11.5661
工芸	-11.5662
歴史上	-11.5662
受託	-11.5664
抱え	-11.5666
に行われた	-11.5667
曖昧	-11.5667
にともない	-11.5668
※	-11.5668
▁ac	-11.5669
から始まる	-11.567
に襲われ	-11.5671
出演していた	-11.5671
柔軟	-11.5671
寄稿	-11.5672
hal	-11.5672
ワールドシリーズ	-11.5673
積極的な	-11.5674
遺物	-11.5674
維新	-11.5675
▁ga	-11.5675
示されている	-11.5676
どおり	-11.5676
膨大な	-11.5677
に従軍	-11.5677
即位した	-11.5678
最新の	-11.5678
中央に	-11.568
を受章	-11.568
フェロー	-11.568
歴史的に	-11.5682
西欧	-11.5685
植え	-11.5686
▁一般的に	-11.5687
5.5	-11.5688
本機	-11.5689
」()	-11.5689
ケルン	-11.569
バラエティ	-11.5692
聖人	-11.5692
old	-11.5692
頸	-11.5693
ヶ月間	-11.5694
自由な	-11.5695
退社	-11.5695
兵を	-11.5695
格納	-11.5696
階の	-11.5697
、1934	-11.5697
の低い	-11.5698
ひさ	-11.57
簡単な	-11.57
ヴァルト	-11.5702
日までに	-11.5703
奨	-11.5703
フォト	-11.5704
駅間の	-11.5705
上では	-11.5705
に至って	-11.5707
で生まれる	-11.5707
oe	-11.5709
扶	-11.5709
2.7	-11.5711
てきたが	-11.5712
ヴル	-11.5713
е	-11.5714
!!」	-11.5715
アシ	-11.5716
不調	-11.5717
順調に	-11.5717
スパルタ	-11.5718
河野	-11.5718
本郷	-11.5718
dos	-11.5721
されたり	-11.5724
無所属	-11.5726
対潜	-11.5726
野球場	-11.5727
デア	-11.5727
遮断	-11.5728
テレビジョン	-11.5729
位を獲得した	-11.573
倉敷	-11.5731
しよう	-11.5731
ができた	-11.5732
運行する	-11.5732
トレイン	-11.5733
債	-11.5733
ラグ	-11.5734
号が	-11.5734
立ち上げ	-11.5734
行って	-11.5734
写真を	-11.5736
の為	-11.5736
の形態	-11.5736
通報	-11.5736
イリ	-11.5737
に到着	-11.5737
新曲	-11.5737
pla	-11.5737
大半が	-11.5738
ゥ	-11.5739
の指揮下	-11.5739
▁第二次世界大戦後	-11.5739
を占め	-11.5739
市場で	-11.5739
の姓	-11.574
ダイヤ改正	-11.5741
緑の	-11.5741
cv	-11.5742
収録された	-11.5742
参謀長	-11.5744
▁time	-11.5746
sim	-11.5747
障	-11.5748
に含まれ	-11.5748
レント	-11.5748
試合出場	-11.5749
ヒュ	-11.575
稲荷	-11.5751
モト	-11.5751
高雄	-11.5752
度目	-11.5753
つる	-11.5754
問い	-11.5755
cur	-11.5755
pm	-11.5756
対馬	-11.5759
実質的な	-11.576
穀	-11.576
突起	-11.5762
▁des	-11.5762
へ移	-11.5762
実体	-11.5763
トレー	-11.5763
に抜擢され	-11.5763
美子	-11.5763
叩	-11.5763
分配	-11.5764
厚生	-11.5764
自分を	-11.5765
提唱した	-11.5766
の重要性	-11.5766
が再び	-11.5766
たところ	-11.5769
日露戦争	-11.5769
として扱われ	-11.5771
今井	-11.5772
が原因	-11.5773
人だった	-11.5773
のみであった	-11.5773
回線	-11.5773
文化放送	-11.5774
准教授	-11.5774
迫る	-11.5774
濱	-11.5775
ロル	-11.5776
版画	-11.5777
苦労	-11.5778
家族の	-11.578
経済成長	-11.578
ナイフ	-11.578
▁元々	-11.5782
ンダー	-11.5783
使用可能	-11.5783
休暇	-11.5783
調和	-11.5784
スティーブン	-11.5784
エストニア	-11.5785
アラビア	-11.5787
焦点	-11.5787
破綻	-11.5787
鼓	-11.5788
られなかった	-11.5789
がこれ	-11.579
の発表	-11.579
祈り	-11.5791
ウルス	-11.5791
▁兄	-11.5792
駐留	-11.5792
なっていた	-11.5793
回った	-11.5794
タッグ王座	-11.5794
(2007	-11.5795
例がある	-11.5796
信託	-11.5796
男の	-11.5796
▁アルバム	-11.5797
の完成	-11.5797
偶	-11.5798
幻想	-11.5798
と指摘している	-11.5798
national	-11.5799
に組み込まれ	-11.5799
配属	-11.58
去った	-11.58
▁ja	-11.58
グラフィ	-11.58
、1929	-11.5801
を積極的に	-11.5801
音を	-11.5801
ネック	-11.5801
(=	-11.5802
蔵書	-11.5802
倫	-11.5804
ミック	-11.5806
者や	-11.5806
こんな	-11.5807
に属した	-11.5808
の仲間	-11.5809
慣れ	-11.5809
tom	-11.581
工房	-11.581
を建設し	-11.5811
封印	-11.5812
世紀前半	-11.5812
宗教的	-11.5813
次官	-11.5813
帖	-11.5814
メーカーの	-11.5814
日本シリーズ	-11.5814
の編集	-11.5815
和名	-11.5816
▁詳細は	-11.5816
(2009	-11.5819
理由から	-11.5819
フランクリン	-11.582
改名	-11.5821
射殺	-11.5822
р	-11.5822
▁しかしこの	-11.5822
改変	-11.5822
電機	-11.5824
並行	-11.5824
をやめ	-11.5825
アンダーソン	-11.5826
リボン	-11.5826
リアルタイム	-11.5827
納入	-11.5828
オハイオ州	-11.5828
始発	-11.5828
東北地方	-11.583
、“	-11.583
が採用され	-11.5832
通じる	-11.5833
哺乳類	-11.5834
藤沢	-11.5836
アビ	-11.5836
、1928	-11.5836
プロトコル	-11.5836
調子	-11.5837
院長	-11.5837
されるまで	-11.5837
岩手	-11.5838
伝えた	-11.5839
など多くの	-11.5839
(2006	-11.5839
総統	-11.5839
ようだ	-11.584
マーン	-11.584
代表者	-11.5842
投入された	-11.5843
が低く	-11.5844
時まで	-11.5844
慕	-11.5844
ダンジョン	-11.5845
▁中央	-11.5846
きわめて	-11.5847
内藤	-11.5848
貰	-11.5849
降水量	-11.5849
109	-11.585
bro	-11.5851
を行うため	-11.5852
漫画作品	-11.5853
を付けた	-11.5853
確か	-11.5853
人や	-11.5854
バスターミナル	-11.5854
生殖	-11.5855
客員教授	-11.5855
ゅ	-11.5855
が使われている	-11.5858
無罪	-11.5859
不詳	-11.5862
幼虫	-11.5862
らぬ	-11.5862
留学生	-11.5862
水が	-11.5863
が主催する	-11.5864
レコード会社	-11.5865
▁star	-11.5865
エンターテイメント	-11.5865
拍子	-11.5866
研究開発	-11.5866
ヘア	-11.5867
を引き継いだ	-11.5867
を除いた	-11.5868
債権	-11.5868
与える	-11.5868
荘園	-11.5869
体長	-11.587
つぶ	-11.587
ライド	-11.5871
を担当していた	-11.5873
を開く	-11.5874
制圧	-11.5875
適用される	-11.5875
のインタビュー	-11.5875
商事	-11.5876
メイト	-11.5876
とか	-11.5877
ています	-11.5877
ていたという	-11.5877
大日本	-11.5878
ルーツ	-11.5879
を教え	-11.588
敗れた	-11.5882
下院議員	-11.5883
名である	-11.5883
罪で	-11.5883
を借り	-11.5883
のインタビューで	-11.5884
召	-11.5885
チオ	-11.5887
を増やし	-11.5887
名目	-11.589
135	-11.5891
に進出した	-11.5891
石田	-11.5891
1.1	-11.5892
立案	-11.5892
サポーター	-11.5893
ima	-11.5893
分断	-11.5893
採集	-11.5893
栃木	-11.5894
形が	-11.5895
卑	-11.5896
参画	-11.5897
本多	-11.5897
1・2	-11.5898
平方メートル	-11.5898
デリ	-11.5899
対話	-11.5901
gal	-11.5901
合わせた	-11.5902
db	-11.5902
全体に	-11.5903
sw	-11.5905
単発	-11.5905
デイリー	-11.5905
肘	-11.5907
いかなる	-11.5908
出している	-11.5909
に分けて	-11.591
gy	-11.591
の訓練	-11.591
の軍勢	-11.591
じゅ	-11.591
が参加した	-11.591
に加わり	-11.5911
秋に	-11.5911
gh	-11.5912
ミッ	-11.5913
▁イタリア	-11.5913
▁gu	-11.5914
自分は	-11.5915
変え	-11.5915
▁具体的には	-11.5915
当社	-11.5916
が認められる	-11.5916
考えた	-11.5917
と出会い	-11.5917
ria	-11.5918
りつ	-11.5918
1868	-11.5919
撰	-11.5919
そうな	-11.5921
殉	-11.5921
退却	-11.5922
ものとなった	-11.5923
周辺に	-11.5924
ウェイン	-11.5925
資材	-11.5926
と合併し	-11.5926
郊外の	-11.5926
家具	-11.5926
仮面	-11.5926
に入れ	-11.5927
支え	-11.5928
背後	-11.5929
ジャイアンツ	-11.593
展望	-11.593
し始めた	-11.593
、1931	-11.5933
本書	-11.5933
女優の	-11.5933
せられた	-11.5934
十字軍	-11.5935
イザー	-11.5936
染色体	-11.5936
フランシスコ	-11.5937
npb	-11.5937
日本の女優	-11.5937
が持つ	-11.5937
フス	-11.5939
開発者	-11.5941
クレア	-11.5942
北条氏	-11.5942
の形で	-11.5943
好成績	-11.5943
発売され	-11.5945
授け	-11.5946
タイアップ	-11.5946
つめ	-11.5948
の意思	-11.5948
行為を	-11.5949
ママ	-11.595
桜井	-11.5951
の追加	-11.5951
トミー	-11.5951
大阪市立	-11.5952
原作者	-11.5952
直す	-11.5952
改題	-11.5952
宮本	-11.5953
の主人公	-11.5953
表彰台	-11.5955
なければならなかった	-11.5955
されるため	-11.5955
年代後半から	-11.5956
ジャス	-11.5956
芸能人	-11.5956
グループは	-11.5957
物理的	-11.5957
撮影した	-11.5957
開始した	-11.5958
トレン	-11.5958
でしょう	-11.5959
となっていたが	-11.596
韻	-11.596
塩化	-11.5962
フック	-11.5962
las	-11.5963
暗い	-11.5963
ジーン	-11.5964
の性格	-11.5965
広まった	-11.5965
真理	-11.5967
アダルト	-11.5967
帰る	-11.5968
領内	-11.5968
系列の	-11.5969
がち	-11.5969
原作の	-11.5971
認められている	-11.5971
された後	-11.5971
くなり	-11.5972
が開かれ	-11.5973
鶴見	-11.5975
者も	-11.5975
処刑された	-11.5976
初出	-11.5976
ペトロ	-11.5977
を展開する	-11.5977
隋	-11.5978
島町	-11.5978
難波	-11.5978
末期に	-11.598
全英	-11.5981
になってしまう	-11.5982
わし	-11.5983
カラオケ	-11.5984
予備役	-11.5984
取り上げられ	-11.5986
始まり	-11.5987
hl	-11.5988
かき	-11.5989
ナール	-11.5991
彼女を	-11.5992
フェニックス	-11.5993
拠点として	-11.5994
に在籍	-11.5994
其	-11.5994
悦	-11.5994
国々	-11.5996
カンファレンス	-11.5997
nm	-11.5997
メディ	-11.5997
ワイルド	-11.5998
東ドイツ	-11.5998
を繰り返す	-11.5999
派遣した	-11.5999
トランプ	-11.5999
主人	-11.6002
iss	-11.6002
太陽の	-11.6002
ぐち	-11.6003
提供する	-11.6004
城は	-11.6004
が大幅に	-11.6004
クジラ	-11.6004
定めた	-11.6005
本人の	-11.6008
に反対し	-11.6008
法則	-11.601
真の	-11.601
持っている	-11.6011
宛	-11.6012
sur	-11.6013
はやや	-11.6013
百合	-11.6013
南北朝時代	-11.6015
董	-11.6015
▁同月	-11.6016
アクセント	-11.6016
曳	-11.6017
の会員	-11.6017
取って	-11.6018
豊橋	-11.6019
儀礼	-11.6021
知られた	-11.6022
ベット	-11.6022
ギャング	-11.6024
の中で最も	-11.6024
舞鶴	-11.6024
に分かれる	-11.6024
キャッチ	-11.6024
大敗	-11.6025
通った	-11.6026
レギュラー出演	-11.6026
況	-11.6026
湖の	-11.6028
プロペラ	-11.6029
常時	-11.603
ピエ	-11.603
公卿	-11.603
餅	-11.603
星野	-11.6031
ディビシオン	-11.6032
が必要な	-11.6032
鈴鹿	-11.6033
成績を残し	-11.6034
▁“	-11.6035
ことが発表された	-11.6037
▁監督は	-11.6037
会会長	-11.6037
年代後半に	-11.6037
刈	-11.6038
詳しい	-11.6039
直結	-11.604
ホームズ	-11.604
在学中に	-11.604
出身のプロ野球選手	-11.604
奥州	-11.6041
pal	-11.6041
問われ	-11.6041
本文	-11.6042
ガウ	-11.6042
ッテ	-11.6042
前橋	-11.6043
平坦	-11.6043
給与	-11.6044
じり	-11.6044
フアン	-11.6044
対外	-11.6045
つくば	-11.6046
ように見える	-11.6047
▁part	-11.6048
一橋大学	-11.6049
外科	-11.6049
頭に	-11.6049
二等	-11.6051
調査では	-11.6052
四つ	-11.6053
擬	-11.6055
久留米	-11.6055
傾向にある	-11.6055
として知られ	-11.6056
▁森	-11.6057
役を	-11.6057
着け	-11.6058
の反乱	-11.6059
▁この後	-11.606
吹奏楽	-11.6062
月に行われた	-11.6062
iz	-11.6063
上皇	-11.6066
白山	-11.6067
に住んでいた	-11.6067
立って	-11.6068
ハンブルク	-11.6069
自称	-11.6069
1.3	-11.607
足立	-11.607
ーニャ	-11.6076
角川	-11.6076
に沿った	-11.6077
本人が	-11.6077
収蔵	-11.6078
参拝	-11.608
を指導	-11.6081
ミドル級	-11.6081
では第	-11.6082
自身初の	-11.6083
忘れ	-11.6083
学派	-11.6084
たことから	-11.6086
ティエ	-11.6087
不可欠	-11.6087
▁1911	-11.6087
加算	-11.6089
務めた	-11.609
だけは	-11.6092
八郎	-11.6092
小銃	-11.6092
踊	-11.6093
sn	-11.6094
ツェン	-11.6094
を行っており	-11.6094
日放送	-11.6094
凝	-11.6094
休刊	-11.6095
青少年	-11.6095
モロッコ	-11.6096
王族	-11.6096
賜	-11.6096
勧	-11.6097
日本語の	-11.6097
電灯	-11.6097
とも言える	-11.6098
tes	-11.6098
悩み	-11.6099
に設立された	-11.6099
慎重	-11.61
トロイ	-11.6101
居城	-11.6102
位を記録した	-11.6102
消失	-11.6102
ミサ	-11.6102
火薬	-11.6103
小学校の	-11.6103
ビルマ	-11.6106
vis	-11.6107
の東側	-11.6107
長老	-11.6108
▁ここに	-11.6108
台数	-11.6109
たとき	-11.6109
協奏曲	-11.611
前部	-11.611
▁cha	-11.6111
現在地	-11.6112
病院で	-11.6112
タイガース	-11.6115
〔	-11.6117
を満たし	-11.6118
(2008	-11.6118
cat	-11.6119
フォワード	-11.6119
日本において	-11.612
世界的な	-11.612
android	-11.6121
放送した	-11.6121
取り付けられ	-11.6125
ウェルター級	-11.6125
に立った	-11.6125
断片	-11.6125
を決定	-11.6126
[...]
